{
  "version": "1.0",
  "truncation": null,
  "padding": null,
  "added_tokens": [
    {
      "id": 0,
      "content": "[UNK]",
      "single_word": false,
      "lstrip": false,
      "rstrip": false,
      "normalized": false,
      "special": true
    },
    {
      "id": 1,
      "content": "[PAD]",
      "single_word": false,
      "lstrip": false,
      "rstrip": false,
      "normalized": false,
      "special": true
    }
  ],
  "normalizer": null,
  "pre_tokenizer": {
    "type": "Whitespace"
  },
  "post_processor": null,
  "decoder": null,
  "model": {
    "type": "BPE",
    "dropout": null,
    "unk_token": "[UNK]",
    "continuing_subword_prefix": null,
    "end_of_word_suffix": null,
    "fuse_unk": false,
    "vocab": {
      "[UNK]": 0,
      "[PAD]": 1,
      "!": 2,
      "\"": 3,
      "#": 4,
      "$": 5,
      "%": 6,
      "&": 7,
      "'": 8,
      "(": 9,
      ")": 10,
      "*": 11,
      "+": 12,
      ",": 13,
      "-": 14,
      ".": 15,
      "/": 16,
      "0": 17,
      "1": 18,
      "2": 19,
      "3": 20,
      "4": 21,
      "5": 22,
      "6": 23,
      "7": 24,
      "8": 25,
      "9": 26,
      ":": 27,
      ";": 28,
      "=": 29,
      "?": 30,
      "@": 31,
      "A": 32,
      "B": 33,
      "C": 34,
      "D": 35,
      "E": 36,
      "F": 37,
      "G": 38,
      "H": 39,
      "I": 40,
      "J": 41,
      "K": 42,
      "L": 43,
      "M": 44,
      "N": 45,
      "O": 46,
      "P": 47,
      "Q": 48,
      "R": 49,
      "S": 50,
      "T": 51,
      "U": 52,
      "V": 53,
      "W": 54,
      "X": 55,
      "Y": 56,
      "Z": 57,
      "[": 58,
      "\\": 59,
      "]": 60,
      "^": 61,
      "_": 62,
      "`": 63,
      "a": 64,
      "b": 65,
      "c": 66,
      "d": 67,
      "e": 68,
      "f": 69,
      "g": 70,
      "h": 71,
      "i": 72,
      "j": 73,
      "k": 74,
      "l": 75,
      "m": 76,
      "n": 77,
      "o": 78,
      "p": 79,
      "q": 80,
      "r": 81,
      "s": 82,
      "t": 83,
      "u": 84,
      "v": 85,
      "w": 86,
      "x": 87,
      "y": 88,
      "z": 89,
      "{": 90,
      "|": 91,
      "}": 92,
      "~": 93,
      "": 94,
      "": 95,
      "": 96,
      "": 97,
      "": 98,
      "": 99,
      "": 100,
      "": 101,
      "": 102,
      "": 103,
      "": 104,
      "": 105,
      "": 106,
      "": 107,
      "": 108,
      "": 109,
      "": 110,
      "¡": 111,
      "¢": 112,
      "£": 113,
      "¤": 114,
      "¥": 115,
      "¦": 116,
      "§": 117,
      "¨": 118,
      "©": 119,
      "ª": 120,
      "«": 121,
      "¬": 122,
      "­": 123,
      "®": 124,
      "¯": 125,
      "°": 126,
      "±": 127,
      "²": 128,
      "³": 129,
      "´": 130,
      "µ": 131,
      "¶": 132,
      "·": 133,
      "¸": 134,
      "¹": 135,
      "º": 136,
      "»": 137,
      "¼": 138,
      "½": 139,
      "¾": 140,
      "¿": 141,
      "À": 142,
      "Á": 143,
      "Â": 144,
      "Ã": 145,
      "Ä": 146,
      "Å": 147,
      "Æ": 148,
      "Ç": 149,
      "È": 150,
      "É": 151,
      "Ê": 152,
      "Ë": 153,
      "Ì": 154,
      "Í": 155,
      "Î": 156,
      "Ï": 157,
      "Ð": 158,
      "Ñ": 159,
      "Ò": 160,
      "Ó": 161,
      "Ô": 162,
      "Õ": 163,
      "Ö": 164,
      "×": 165,
      "Ø": 166,
      "Ù": 167,
      "Ú": 168,
      "Û": 169,
      "Ü": 170,
      "Ý": 171,
      "Þ": 172,
      "ß": 173,
      "à": 174,
      "á": 175,
      "â": 176,
      "ã": 177,
      "ä": 178,
      "å": 179,
      "æ": 180,
      "ç": 181,
      "è": 182,
      "é": 183,
      "ê": 184,
      "ë": 185,
      "ì": 186,
      "í": 187,
      "î": 188,
      "ï": 189,
      "ð": 190,
      "ñ": 191,
      "ò": 192,
      "ó": 193,
      "ô": 194,
      "õ": 195,
      "ö": 196,
      "÷": 197,
      "ø": 198,
      "ù": 199,
      "ú": 200,
      "û": 201,
      "ü": 202,
      "ý": 203,
      "þ": 204,
      "ÿ": 205,
      "Ā": 206,
      "ā": 207,
      "Ă": 208,
      "ă": 209,
      "Ą": 210,
      "ą": 211,
      "Ć": 212,
      "ć": 213,
      "Ĉ": 214,
      "ĉ": 215,
      "Ċ": 216,
      "ċ": 217,
      "Č": 218,
      "č": 219,
      "Ď": 220,
      "ď": 221,
      "Đ": 222,
      "đ": 223,
      "Ē": 224,
      "ē": 225,
      "Ĕ": 226,
      "ĕ": 227,
      "Ė": 228,
      "ė": 229,
      "Ę": 230,
      "ę": 231,
      "Ě": 232,
      "ě": 233,
      "Ĝ": 234,
      "ĝ": 235,
      "Ğ": 236,
      "ğ": 237,
      "Ġ": 238,
      "ġ": 239,
      "Ģ": 240,
      "ģ": 241,
      "Ĥ": 242,
      "ĥ": 243,
      "Ħ": 244,
      "ħ": 245,
      "ĩ": 246,
      "Ī": 247,
      "ī": 248,
      "Ĭ": 249,
      "ĭ": 250,
      "Į": 251,
      "į": 252,
      "İ": 253,
      "ı": 254,
      "Ĳ": 255,
      "ĳ": 256,
      "Ĵ": 257,
      "ĵ": 258,
      "Ķ": 259,
      "ķ": 260,
      "ĸ": 261,
      "ĺ": 262,
      "Ļ": 263,
      "ļ": 264,
      "Ľ": 265,
      "ľ": 266,
      "Ł": 267,
      "ł": 268,
      "Ń": 269,
      "ń": 270,
      "Ņ": 271,
      "ņ": 272,
      "Ň": 273,
      "ň": 274,
      "Ŋ": 275,
      "ŋ": 276,
      "Ō": 277,
      "ō": 278,
      "Ŏ": 279,
      "ŏ": 280,
      "Ő": 281,
      "ő": 282,
      "Œ": 283,
      "œ": 284,
      "ŕ": 285,
      "Ŗ": 286,
      "ŗ": 287,
      "Ř": 288,
      "ř": 289,
      "Ś": 290,
      "ś": 291,
      "Ŝ": 292,
      "ŝ": 293,
      "Ş": 294,
      "ş": 295,
      "Š": 296,
      "š": 297,
      "Ţ": 298,
      "ţ": 299,
      "Ť": 300,
      "ť": 301,
      "Ŧ": 302,
      "ŧ": 303,
      "ũ": 304,
      "Ū": 305,
      "ū": 306,
      "Ŭ": 307,
      "ŭ": 308,
      "Ů": 309,
      "ů": 310,
      "Ű": 311,
      "ű": 312,
      "Ų": 313,
      "ų": 314,
      "Ŵ": 315,
      "ŵ": 316,
      "Ŷ": 317,
      "ŷ": 318,
      "Ÿ": 319,
      "Ź": 320,
      "ź": 321,
      "Ż": 322,
      "ż": 323,
      "Ž": 324,
      "ž": 325,
      "ſ": 326,
      "ƀ": 327,
      "Ɓ": 328,
      "Ɔ": 329,
      "Ɖ": 330,
      "Ɗ": 331,
      "Ǝ": 332,
      "Ə": 333,
      "Ɛ": 334,
      "ƒ": 335,
      "Ɨ": 336,
      "ƛ": 337,
      "Ɲ": 338,
      "ƞ": 339,
      "Ɵ": 340,
      "Ơ": 341,
      "ơ": 342,
      "Ƣ": 343,
      "ƣ": 344,
      "Ʃ": 345,
      "ư": 346,
      "Ʊ": 347,
      "Ʋ": 348,
      "Ƴ": 349,
      "ƴ": 350,
      "Ƶ": 351,
      "ƶ": 352,
      "Ʒ": 353,
      "ƿ": 354,
      "ǀ": 355,
      "ǁ": 356,
      "ǂ": 357,
      "ǃ": 358,
      "Ǎ": 359,
      "ǎ": 360,
      "ǐ": 361,
      "ǒ": 362,
      "ǔ": 363,
      "ǖ": 364,
      "ǘ": 365,
      "ǚ": 366,
      "ǜ": 367,
      "ǝ": 368,
      "ǟ": 369,
      "Ǧ": 370,
      "ǧ": 371,
      "ǩ": 372,
      "Ǫ": 373,
      "ǫ": 374,
      "Ǯ": 375,
      "ǯ": 376,
      "ǰ": 377,
      "Ǵ": 378,
      "ǵ": 379,
      "Ǹ": 380,
      "ǽ": 381,
      "ȃ": 382,
      "ȓ": 383,
      "Ș": 384,
      "ș": 385,
      "Ț": 386,
      "ț": 387,
      "ȝ": 388,
      "Ȟ": 389,
      "ȟ": 390,
      "Ƞ": 391,
      "Ȣ": 392,
      "ȣ": 393,
      "ȥ": 394,
      "ȧ": 395,
      "ȫ": 396,
      "ȯ": 397,
      "ȳ": 398,
      "ȷ": 399,
      "ɀ": 400,
      "Ƀ": 401,
      "Ʌ": 402,
      "Ɋ": 403,
      "Ɍ": 404,
      "ɍ": 405,
      "ɐ": 406,
      "ɑ": 407,
      "ɒ": 408,
      "ɓ": 409,
      "ɔ": 410,
      "ɕ": 411,
      "ɖ": 412,
      "ɗ": 413,
      "ɘ": 414,
      "ə": 415,
      "ɚ": 416,
      "ɛ": 417,
      "ɜ": 418,
      "ɝ": 419,
      "ɟ": 420,
      "ɡ": 421,
      "ɢ": 422,
      "ɣ": 423,
      "ɤ": 424,
      "ɥ": 425,
      "ɦ": 426,
      "ɧ": 427,
      "ɨ": 428,
      "ɪ": 429,
      "ɫ": 430,
      "ɬ": 431,
      "ɭ": 432,
      "ɮ": 433,
      "ɯ": 434,
      "ɰ": 435,
      "ɱ": 436,
      "ɲ": 437,
      "ɳ": 438,
      "ɴ": 439,
      "ɵ": 440,
      "ɶ": 441,
      "ɸ": 442,
      "ɹ": 443,
      "ɺ": 444,
      "ɻ": 445,
      "ɽ": 446,
      "ɾ": 447,
      "ʀ": 448,
      "ʁ": 449,
      "ʂ": 450,
      "ʃ": 451,
      "ʈ": 452,
      "ʉ": 453,
      "ʊ": 454,
      "ʋ": 455,
      "ʌ": 456,
      "ʎ": 457,
      "ʏ": 458,
      "ʐ": 459,
      "ʑ": 460,
      "ʒ": 461,
      "ʔ": 462,
      "ʕ": 463,
      "ʙ": 464,
      "ʝ": 465,
      "ʟ": 466,
      "ʣ": 467,
      "ʤ": 468,
      "ʦ": 469,
      "ʧ": 470,
      "ʰ": 471,
      "ʱ": 472,
      "ʲ": 473,
      "ʷ": 474,
      "ʹ": 475,
      "ʻ": 476,
      "ʼ": 477,
      "ʽ": 478,
      "ʾ": 479,
      "ʿ": 480,
      "ˀ": 481,
      "ˁ": 482,
      "ˆ": 483,
      "ˇ": 484,
      "ˈ": 485,
      "ˉ": 486,
      "ˊ": 487,
      "ˋ": 488,
      "ˌ": 489,
      "ː": 490,
      "ˑ": 491,
      "˘": 492,
      "˙": 493,
      "˚": 494,
      "˛": 495,
      "˜": 496,
      "ˠ": 497,
      "ˡ": 498,
      "ˣ": 499,
      "ˤ": 500,
      "˥": 501,
      "˧": 502,
      "˨": 503,
      "˩": 504,
      "˹": 505,
      "˺": 506,
      "̀": 507,
      "́": 508,
      "̂": 509,
      "̃": 510,
      "̄": 511,
      "̅": 512,
      "̆": 513,
      "̇": 514,
      "̈": 515,
      "̊": 516,
      "̌": 517,
      "̍": 518,
      "̑": 519,
      "̓": 520,
      "̕": 521,
      "̗": 522,
      "̘": 523,
      "̚": 524,
      "̝": 525,
      "̞": 526,
      "̟": 527,
      "̠": 528,
      "̡": 529,
      "̣": 530,
      "̤": 531,
      "̥": 532,
      "̦": 533,
      "̧": 534,
      "̨": 535,
      "̩": 536,
      "̪": 537,
      "̮": 538,
      "̯": 539,
      "̰": 540,
      "̱": 541,
      "̲": 542,
      "̴": 543,
      "̵": 544,
      "̶": 545,
      "̹": 546,
      "̺": 547,
      "̼": 548,
      "͂": 549,
      "͈": 550,
      "͗": 551,
      "͜": 552,
      "͡": 553,
      "ͭ": 554,
      "Ͱ": 555,
      "ͱ": 556,
      "ͳ": 557,
      "͵": 558,
      "Ͷ": 559,
      "ͷ": 560,
      "΄": 561,
      "Ά": 562,
      "Έ": 563,
      "Ή": 564,
      "Ί": 565,
      "Ό": 566,
      "Ύ": 567,
      "ΐ": 568,
      "Α": 569,
      "Β": 570,
      "Γ": 571,
      "Δ": 572,
      "Ε": 573,
      "Ζ": 574,
      "Η": 575,
      "Θ": 576,
      "Ι": 577,
      "Κ": 578,
      "Λ": 579,
      "Μ": 580,
      "Ν": 581,
      "Ξ": 582,
      "Ο": 583,
      "Π": 584,
      "Ρ": 585,
      "Σ": 586,
      "Τ": 587,
      "Υ": 588,
      "Φ": 589,
      "Χ": 590,
      "Ψ": 591,
      "Ω": 592,
      "Ϊ": 593,
      "ά": 594,
      "έ": 595,
      "ή": 596,
      "ί": 597,
      "α": 598,
      "β": 599,
      "γ": 600,
      "δ": 601,
      "ε": 602,
      "ζ": 603,
      "η": 604,
      "θ": 605,
      "ι": 606,
      "κ": 607,
      "λ": 608,
      "μ": 609,
      "ν": 610,
      "ξ": 611,
      "ο": 612,
      "π": 613,
      "ρ": 614,
      "ς": 615,
      "σ": 616,
      "τ": 617,
      "υ": 618,
      "φ": 619,
      "χ": 620,
      "ψ": 621,
      "ω": 622,
      "ϊ": 623,
      "ϋ": 624,
      "ό": 625,
      "ύ": 626,
      "ώ": 627,
      "ϐ": 628,
      "ϑ": 629,
      "ϒ": 630,
      "ϕ": 631,
      "ϖ": 632,
      "Ϙ": 633,
      "Ϛ": 634,
      "ϛ": 635,
      "Ϝ": 636,
      "ϝ": 637,
      "Ϟ": 638,
      "ϟ": 639,
      "ϩ": 640,
      "ϯ": 641,
      "ϰ": 642,
      "ϱ": 643,
      "ϴ": 644,
      "ϵ": 645,
      "Ϸ": 646,
      "ϸ": 647,
      "Ϲ": 648,
      "Ϻ": 649,
      "Ѐ": 650,
      "Ё": 651,
      "Ђ": 652,
      "Ѓ": 653,
      "Є": 654,
      "Ѕ": 655,
      "І": 656,
      "Ї": 657,
      "Ј": 658,
      "Љ": 659,
      "Њ": 660,
      "Ћ": 661,
      "Ќ": 662,
      "Ѝ": 663,
      "Ў": 664,
      "Џ": 665,
      "А": 666,
      "Б": 667,
      "В": 668,
      "Г": 669,
      "Д": 670,
      "Е": 671,
      "Ж": 672,
      "З": 673,
      "И": 674,
      "Й": 675,
      "К": 676,
      "Л": 677,
      "М": 678,
      "Н": 679,
      "О": 680,
      "П": 681,
      "Р": 682,
      "С": 683,
      "Т": 684,
      "У": 685,
      "Ф": 686,
      "Х": 687,
      "Ц": 688,
      "Ч": 689,
      "Ш": 690,
      "Щ": 691,
      "Ъ": 692,
      "Ы": 693,
      "Ь": 694,
      "Э": 695,
      "Ю": 696,
      "Я": 697,
      "а": 698,
      "б": 699,
      "в": 700,
      "г": 701,
      "д": 702,
      "е": 703,
      "ж": 704,
      "з": 705,
      "и": 706,
      "й": 707,
      "к": 708,
      "л": 709,
      "м": 710,
      "н": 711,
      "о": 712,
      "п": 713,
      "р": 714,
      "с": 715,
      "т": 716,
      "у": 717,
      "ф": 718,
      "х": 719,
      "ц": 720,
      "ч": 721,
      "ш": 722,
      "щ": 723,
      "ъ": 724,
      "ы": 725,
      "ь": 726,
      "э": 727,
      "ю": 728,
      "я": 729,
      "ѐ": 730,
      "ё": 731,
      "ђ": 732,
      "ѓ": 733,
      "є": 734,
      "ѕ": 735,
      "і": 736,
      "ї": 737,
      "ј": 738,
      "љ": 739,
      "њ": 740,
      "ћ": 741,
      "ќ": 742,
      "ѝ": 743,
      "ў": 744,
      "џ": 745,
      "Ѡ": 746,
      "ѡ": 747,
      "Ѣ": 748,
      "ѣ": 749,
      "Ѥ": 750,
      "ѥ": 751,
      "Ѧ": 752,
      "ѧ": 753,
      "ѩ": 754,
      "ѫ": 755,
      "Ѯ": 756,
      "ѯ": 757,
      "Ѱ": 758,
      "ѱ": 759,
      "Ѳ": 760,
      "ѳ": 761,
      "Ѵ": 762,
      "ѵ": 763,
      "ѷ": 764,
      "Ѹ": 765,
      "ѹ": 766,
      "҃": 767,
      "Ҍ": 768,
      "Ґ": 769,
      "ґ": 770,
      "Ғ": 771,
      "ғ": 772,
      "Ҕ": 773,
      "ҕ": 774,
      "Җ": 775,
      "җ": 776,
      "Ҙ": 777,
      "ҙ": 778,
      "Қ": 779,
      "қ": 780,
      "Ҝ": 781,
      "ҝ": 782,
      "Ҟ": 783,
      "ҟ": 784,
      "Ҡ": 785,
      "ҡ": 786,
      "Ң": 787,
      "ң": 788,
      "Ҥ": 789,
      "ҥ": 790,
      "Ҧ": 791,
      "ҧ": 792,
      "Ҫ": 793,
      "ҫ": 794,
      "Ҭ": 795,
      "ҭ": 796,
      "Ү": 797,
      "ү": 798,
      "Ұ": 799,
      "ұ": 800,
      "Ҳ": 801,
      "ҳ": 802,
      "Ҵ": 803,
      "ҵ": 804,
      "Ҷ": 805,
      "ҷ": 806,
      "Ҹ": 807,
      "ҹ": 808,
      "Һ": 809,
      "һ": 810,
      "Ҽ": 811,
      "ҽ": 812,
      "Ӏ": 813,
      "Ӂ": 814,
      "ӂ": 815,
      "ӄ": 816,
      "Ӆ": 817,
      "ӆ": 818,
      "Ӈ": 819,
      "ӈ": 820,
      "Ӌ": 821,
      "ӏ": 822,
      "Ӑ": 823,
      "ӑ": 824,
      "Ӓ": 825,
      "ӕ": 826,
      "ӗ": 827,
      "Ә": 828,
      "ә": 829,
      "Ӛ": 830,
      "ӛ": 831,
      "ӝ": 832,
      "ӟ": 833,
      "Ӡ": 834,
      "ӡ": 835,
      "ӣ": 836,
      "ӥ": 837,
      "Ӧ": 838,
      "ӧ": 839,
      "Ө": 840,
      "ө": 841,
      "ӯ": 842,
      "Ӱ": 843,
      "ӱ": 844,
      "ӵ": 845,
      "Ӷ": 846,
      "ӷ": 847,
      "Ӹ": 848,
      "Ӽ": 849,
      "ӽ": 850,
      "Ԁ": 851,
      "ԁ": 852,
      "Ԑ": 853,
      "Ԓ": 854,
      "ԓ": 855,
      "Ԙ": 856,
      "ԙ": 857,
      "Ԛ": 858,
      "ԛ": 859,
      "Ԝ": 860,
      "ԝ": 861,
      "ԥ": 862,
      "Ԯ": 863,
      "ԯ": 864,
      "Ա": 865,
      "Բ": 866,
      "Գ": 867,
      "Դ": 868,
      "Ե": 869,
      "Զ": 870,
      "Է": 871,
      "Թ": 872,
      "Ժ": 873,
      "Ի": 874,
      "Լ": 875,
      "Խ": 876,
      "Ծ": 877,
      "Կ": 878,
      "Հ": 879,
      "Ձ": 880,
      "Ղ": 881,
      "Ճ": 882,
      "Մ": 883,
      "Յ": 884,
      "Ն": 885,
      "Շ": 886,
      "Ո": 887,
      "Չ": 888,
      "Պ": 889,
      "Ջ": 890,
      "Ռ": 891,
      "Ս": 892,
      "Վ": 893,
      "Տ": 894,
      "Ր": 895,
      "Ց": 896,
      "Ւ": 897,
      "Փ": 898,
      "Ք": 899,
      "Օ": 900,
      "Ֆ": 901,
      "՞": 902,
      "ա": 903,
      "բ": 904,
      "գ": 905,
      "դ": 906,
      "ե": 907,
      "զ": 908,
      "է": 909,
      "ը": 910,
      "թ": 911,
      "ժ": 912,
      "ի": 913,
      "լ": 914,
      "խ": 915,
      "ծ": 916,
      "կ": 917,
      "հ": 918,
      "ձ": 919,
      "ղ": 920,
      "ճ": 921,
      "մ": 922,
      "յ": 923,
      "ն": 924,
      "շ": 925,
      "ո": 926,
      "չ": 927,
      "պ": 928,
      "ջ": 929,
      "ռ": 930,
      "ս": 931,
      "վ": 932,
      "տ": 933,
      "ր": 934,
      "ց": 935,
      "ւ": 936,
      "փ": 937,
      "ք": 938,
      "օ": 939,
      "ֆ": 940,
      "և": 941,
      "֗": 942,
      "֣": 943,
      "֤": 944,
      "֫": 945,
      "ְ": 946,
      "ֱ": 947,
      "ֲ": 948,
      "ֳ": 949,
      "ִ": 950,
      "ֵ": 951,
      "ֶ": 952,
      "ַ": 953,
      "ָ": 954,
      "ֹ": 955,
      "ֺ": 956,
      "ֻ": 957,
      "ּ": 958,
      "ֽ": 959,
      "־": 960,
      "ֿ": 961,
      "ׁ": 962,
      "ׂ": 963,
      "א": 964,
      "ב": 965,
      "ג": 966,
      "ד": 967,
      "ה": 968,
      "ו": 969,
      "ז": 970,
      "ח": 971,
      "ט": 972,
      "י": 973,
      "ך": 974,
      "כ": 975,
      "ל": 976,
      "ם": 977,
      "מ": 978,
      "ן": 979,
      "נ": 980,
      "ס": 981,
      "ע": 982,
      "ף": 983,
      "פ": 984,
      "ץ": 985,
      "צ": 986,
      "ק": 987,
      "ר": 988,
      "ש": 989,
      "ת": 990,
      "װ": 991,
      "ױ": 992,
      "ײ": 993,
      "׳": 994,
      "״": 995,
      "،": 996,
      "؛": 997,
      "؟": 998,
      "ء": 999,
      "آ": 1000,
      "أ": 1001,
      "ؤ": 1002,
      "إ": 1003,
      "ئ": 1004,
      "ا": 1005,
      "ب": 1006,
      "ة": 1007,
      "ت": 1008,
      "ث": 1009,
      "ج": 1010,
      "ح": 1011,
      "خ": 1012,
      "د": 1013,
      "ذ": 1014,
      "ر": 1015,
      "ز": 1016,
      "س": 1017,
      "ش": 1018,
      "ص": 1019,
      "ض": 1020,
      "ط": 1021,
      "ظ": 1022,
      "ع": 1023,
      "غ": 1024,
      "ـ": 1025,
      "ف": 1026,
      "ق": 1027,
      "ك": 1028,
      "ل": 1029,
      "م": 1030,
      "ن": 1031,
      "ه": 1032,
      "و": 1033,
      "ى": 1034,
      "ي": 1035,
      "ً": 1036,
      "ٌ": 1037,
      "ٍ": 1038,
      "َ": 1039,
      "ُ": 1040,
      "ِ": 1041,
      "ّ": 1042,
      "ْ": 1043,
      "ٓ": 1044,
      "ٔ": 1045,
      "ٖ": 1046,
      "١": 1047,
      "٢": 1048,
      "٣": 1049,
      "٤": 1050,
      "٥": 1051,
      "٧": 1052,
      "٨": 1053,
      "٩": 1054,
      "٫": 1055,
      "٬": 1056,
      "ٯ": 1057,
      "ٰ": 1058,
      "ٱ": 1059,
      "ٲ": 1060,
      "ٳ": 1061,
      "ٷ": 1062,
      "ٸ": 1063,
      "ٹ": 1064,
      "ٻ": 1065,
      "ټ": 1066,
      "ٽ": 1067,
      "پ": 1068,
      "ٿ": 1069,
      "ڀ": 1070,
      "څ": 1071,
      "چ": 1072,
      "ڈ": 1073,
      "ډ": 1074,
      "ڌ": 1075,
      "ڏ": 1076,
      "ڑ": 1077,
      "ړ": 1078,
      "ڕ": 1079,
      "ږ": 1080,
      "ژ": 1081,
      "ڙ": 1082,
      "ښ": 1083,
      "ڞ": 1084,
      "ڠ": 1085,
      "ڤ": 1086,
      "ڨ": 1087,
      "ک": 1088,
      "ڪ": 1089,
      "ګ": 1090,
      "ڬ": 1091,
      "ڭ": 1092,
      "گ": 1093,
      "ڵ": 1094,
      "ڶ": 1095,
      "ں": 1096,
      "ڻ": 1097,
      "ڼ": 1098,
      "ھ": 1099,
      "ۀ": 1100,
      "ہ": 1101,
      "ۆ": 1102,
      "ۇ": 1103,
      "ۈ": 1104,
      "ۊ": 1105,
      "ۋ": 1106,
      "ی": 1107,
      "ۍ": 1108,
      "ێ": 1109,
      "ې": 1110,
      "ے": 1111,
      "ە": 1112,
      "ۖ": 1113,
      "ۙ": 1114,
      "ۚ": 1115,
      "ۛ": 1116,
      "ۜ": 1117,
      "۝": 1118,
      "۞": 1119,
      "ۡ": 1120,
      "ۤ": 1121,
      "۪": 1122,
      "۰": 1123,
      "۱": 1124,
      "۲": 1125,
      "۳": 1126,
      "۴": 1127,
      "۵": 1128,
      "۶": 1129,
      "۷": 1130,
      "۸": 1131,
      "۹": 1132,
      "ۻ": 1133,
      "ۼ": 1134,
      "ܐ": 1135,
      "ܒ": 1136,
      "ܓ": 1137,
      "ܕ": 1138,
      "ܖ": 1139,
      "ܗ": 1140,
      "ܘ": 1141,
      "ܙ": 1142,
      "ܚ": 1143,
      "ܛ": 1144,
      "ܝ": 1145,
      "ܟ": 1146,
      "ܠ": 1147,
      "ܡ": 1148,
      "ܢ": 1149,
      "ܣ": 1150,
      "ܤ": 1151,
      "ܥ": 1152,
      "ܦ": 1153,
      "ܨ": 1154,
      "ܩ": 1155,
      "ܪ": 1156,
      "ܫ": 1157,
      "ܬ": 1158,
      "ܰ": 1159,
      "ܲ": 1160,
      "ܳ": 1161,
      "ܵ": 1162,
      "ܶ": 1163,
      "ܸ": 1164,
      "ܹ": 1165,
      "ܼ": 1166,
      "ܽ": 1167,
      "ܿ": 1168,
      "݁": 1169,
      "݂": 1170,
      "ݘ": 1171,
      "ݝ": 1172,
      "ݢ": 1173,
      "ݣ": 1174,
      "ހ": 1175,
      "ށ": 1176,
      "ނ": 1177,
      "ރ": 1178,
      "ބ": 1179,
      "ޅ": 1180,
      "ކ": 1181,
      "އ": 1182,
      "ވ": 1183,
      "މ": 1184,
      "ފ": 1185,
      "ދ": 1186,
      "ތ": 1187,
      "ލ": 1188,
      "ގ": 1189,
      "ޏ": 1190,
      "ސ": 1191,
      "ޑ": 1192,
      "ޒ": 1193,
      "ޓ": 1194,
      "ޔ": 1195,
      "ޕ": 1196,
      "ޖ": 1197,
      "ޗ": 1198,
      "ޘ": 1199,
      "ޙ": 1200,
      "ޚ": 1201,
      "ޛ": 1202,
      "ޜ": 1203,
      "ޝ": 1204,
      "ޞ": 1205,
      "ޟ": 1206,
      "ޠ": 1207,
      "ޡ": 1208,
      "ޢ": 1209,
      "ޤ": 1210,
      "ަ": 1211,
      "ާ": 1212,
      "ި": 1213,
      "ީ": 1214,
      "ު": 1215,
      "ޫ": 1216,
      "ެ": 1217,
      "ޮ": 1218,
      "ް": 1219,
      "ࠉ": 1220,
      "ࠌ": 1221,
      "ࠓ": 1222,
      "ࠔ": 1223,
      "ࠝ": 1224,
      "ࠠ": 1225,
      "ࠩ": 1226,
      "ँ": 1227,
      "ं": 1228,
      "ः": 1229,
      "अ": 1230,
      "आ": 1231,
      "इ": 1232,
      "ई": 1233,
      "उ": 1234,
      "ऋ": 1235,
      "ए": 1236,
      "ऐ": 1237,
      "ऑ": 1238,
      "औ": 1239,
      "क": 1240,
      "ख": 1241,
      "ग": 1242,
      "घ": 1243,
      "ङ": 1244,
      "च": 1245,
      "छ": 1246,
      "ज": 1247,
      "झ": 1248,
      "ञ": 1249,
      "ट": 1250,
      "ठ": 1251,
      "ड": 1252,
      "ढ": 1253,
      "ण": 1254,
      "त": 1255,
      "थ": 1256,
      "द": 1257,
      "ध": 1258,
      "न": 1259,
      "प": 1260,
      "फ": 1261,
      "ब": 1262,
      "भ": 1263,
      "म": 1264,
      "य": 1265,
      "र": 1266,
      "ल": 1267,
      "ळ": 1268,
      "व": 1269,
      "श": 1270,
      "ष": 1271,
      "स": 1272,
      "ह": 1273,
      "़": 1274,
      "ा": 1275,
      "ि": 1276,
      "ी": 1277,
      "ु": 1278,
      "ू": 1279,
      "ृ": 1280,
      "े": 1281,
      "ै": 1282,
      "ॉ": 1283,
      "ो": 1284,
      "ौ": 1285,
      "्": 1286,
      "ॐ": 1287,
      "॑": 1288,
      "॒": 1289,
      "।": 1290,
      "॥": 1291,
      "१": 1292,
      "५": 1293,
      "६": 1294,
      "८": 1295,
      "ঁ": 1296,
      "ং": 1297,
      "অ": 1298,
      "আ": 1299,
      "ই": 1300,
      "উ": 1301,
      "ও": 1302,
      "ক": 1303,
      "খ": 1304,
      "গ": 1305,
      "ঘ": 1306,
      "ঙ": 1307,
      "চ": 1308,
      "ছ": 1309,
      "জ": 1310,
      "ট": 1311,
      "ঠ": 1312,
      "ড": 1313,
      "ঢ": 1314,
      "ণ": 1315,
      "ত": 1316,
      "থ": 1317,
      "দ": 1318,
      "ন": 1319,
      "প": 1320,
      "ব": 1321,
      "ভ": 1322,
      "ম": 1323,
      "য": 1324,
      "র": 1325,
      "ল": 1326,
      "শ": 1327,
      "ষ": 1328,
      "স": 1329,
      "হ": 1330,
      "়": 1331,
      "া": 1332,
      "ি": 1333,
      "ী": 1334,
      "ু": 1335,
      "ূ": 1336,
      "ে": 1337,
      "ো": 1338,
      "্": 1339,
      "ৎ": 1340,
      "০": 1341,
      "৫": 1342,
      "ৰ": 1343,
      "ৱ": 1344,
      "৲": 1345,
      "৳": 1346,
      "ਅ": 1347,
      "ਆ": 1348,
      "ਇ": 1349,
      "ਈ": 1350,
      "ਉ": 1351,
      "ਏ": 1352,
      "ਓ": 1353,
      "ਕ": 1354,
      "ਖ": 1355,
      "ਗ": 1356,
      "ਘ": 1357,
      "ਚ": 1358,
      "ਜ": 1359,
      "ਟ": 1360,
      "ਤ": 1361,
      "ਥ": 1362,
      "ਦ": 1363,
      "ਧ": 1364,
      "ਨ": 1365,
      "ਪ": 1366,
      "ਬ": 1367,
      "ਭ": 1368,
      "ਮ": 1369,
      "ਰ": 1370,
      "ਲ": 1371,
      "ਵ": 1372,
      "ਸ": 1373,
      "ਹ": 1374,
      "਼": 1375,
      "ਾ": 1376,
      "ਿ": 1377,
      "ੀ": 1378,
      "ੁ": 1379,
      "ੂ": 1380,
      "ੇ": 1381,
      "ੈ": 1382,
      "ੋ": 1383,
      "੍": 1384,
      "ੰ": 1385,
      "ੱ": 1386,
      "ੴ": 1387,
      "ં": 1388,
      "ઃ": 1389,
      "અ": 1390,
      "આ": 1391,
      "ઇ": 1392,
      "ઈ": 1393,
      "ઉ": 1394,
      "ઊ": 1395,
      "ઋ": 1396,
      "ઍ": 1397,
      "એ": 1398,
      "ઐ": 1399,
      "ઑ": 1400,
      "ઓ": 1401,
      "ઔ": 1402,
      "ક": 1403,
      "ખ": 1404,
      "ગ": 1405,
      "ચ": 1406,
      "છ": 1407,
      "જ": 1408,
      "ઝ": 1409,
      "ટ": 1410,
      "ઠ": 1411,
      "ડ": 1412,
      "ણ": 1413,
      "ત": 1414,
      "થ": 1415,
      "દ": 1416,
      "ધ": 1417,
      "ન": 1418,
      "પ": 1419,
      "ફ": 1420,
      "બ": 1421,
      "ભ": 1422,
      "મ": 1423,
      "ય": 1424,
      "ર": 1425,
      "લ": 1426,
      "ળ": 1427,
      "વ": 1428,
      "શ": 1429,
      "ષ": 1430,
      "સ": 1431,
      "હ": 1432,
      "ા": 1433,
      "િ": 1434,
      "ી": 1435,
      "ુ": 1436,
      "ૂ": 1437,
      "ૃ": 1438,
      "ૅ": 1439,
      "ે": 1440,
      "ૈ": 1441,
      "ૉ": 1442,
      "ો": 1443,
      "ૌ": 1444,
      "્": 1445,
      "૦": 1446,
      "૧": 1447,
      "૩": 1448,
      "૪": 1449,
      "૫": 1450,
      "૯": 1451,
      "ଓ": 1452,
      "କ": 1453,
      "ଚ": 1454,
      "ଜ": 1455,
      "ଡ": 1456,
      "ଣ": 1457,
      "ତ": 1458,
      "ଦ": 1459,
      "ନ": 1460,
      "ବ": 1461,
      "ଭ": 1462,
      "ମ": 1463,
      "ଯ": 1464,
      "ର": 1465,
      "ଶ": 1466,
      "ଷ": 1467,
      "ସ": 1468,
      "ା": 1469,
      "ି": 1470,
      "ୁ": 1471,
      "ୂ": 1472,
      "ୋ": 1473,
      "୍": 1474,
      "ୟ": 1475,
      "ஃ": 1476,
      "அ": 1477,
      "ஆ": 1478,
      "இ": 1479,
      "ஈ": 1480,
      "எ": 1481,
      "ஏ": 1482,
      "க": 1483,
      "ங": 1484,
      "ச": 1485,
      "ஜ": 1486,
      "ட": 1487,
      "ண": 1488,
      "த": 1489,
      "ந": 1490,
      "ன": 1491,
      "ப": 1492,
      "ம": 1493,
      "ய": 1494,
      "ர": 1495,
      "ற": 1496,
      "ல": 1497,
      "ள": 1498,
      "ழ": 1499,
      "வ": 1500,
      "ஷ": 1501,
      "ஸ": 1502,
      "ஹ": 1503,
      "ா": 1504,
      "ி": 1505,
      "ீ": 1506,
      "ு": 1507,
      "ூ": 1508,
      "ெ": 1509,
      "ே": 1510,
      "ை": 1511,
      "ொ": 1512,
      "ோ": 1513,
      "்": 1514,
      "ం": 1515,
      "అ": 1516,
      "క": 1517,
      "ఖ": 1518,
      "గ": 1519,
      "జ": 1520,
      "ట": 1521,
      "డ": 1522,
      "ణ": 1523,
      "త": 1524,
      "ద": 1525,
      "న": 1526,
      "ప": 1527,
      "బ": 1528,
      "మ": 1529,
      "య": 1530,
      "ర": 1531,
      "ల": 1532,
      "వ": 1533,
      "శ": 1534,
      "ష": 1535,
      "స": 1536,
      "హ": 1537,
      "ా": 1538,
      "ి": 1539,
      "ీ": 1540,
      "ు": 1541,
      "ూ": 1542,
      "ృ": 1543,
      "ె": 1544,
      "ే": 1545,
      "ై": 1546,
      "ో": 1547,
      "్": 1548,
      "ಂ": 1549,
      "ಕ": 1550,
      "ಗ": 1551,
      "ಚ": 1552,
      "ಜ": 1553,
      "ಟ": 1554,
      "ಡ": 1555,
      "ಣ": 1556,
      "ತ": 1557,
      "ಥ": 1558,
      "ದ": 1559,
      "ಧ": 1560,
      "ನ": 1561,
      "ಪ": 1562,
      "ಫ": 1563,
      "ಬ": 1564,
      "ಭ": 1565,
      "ಮ": 1566,
      "ಯ": 1567,
      "ರ": 1568,
      "ಲ": 1569,
      "ಳ": 1570,
      "ವ": 1571,
      "ಶ": 1572,
      "ಷ": 1573,
      "ಸ": 1574,
      "ಹ": 1575,
      "ಾ": 1576,
      "ಿ": 1577,
      "ೀ": 1578,
      "ು": 1579,
      "ೂ": 1580,
      "ೆ": 1581,
      "ೇ": 1582,
      "ೊ": 1583,
      "ೋ": 1584,
      "್": 1585,
      "೦": 1586,
      "೧": 1587,
      "೮": 1588,
      "೯": 1589,
      "ം": 1590,
      "അ": 1591,
      "ഉ": 1592,
      "എ": 1593,
      "ക": 1594,
      "ജ": 1595,
      "ട": 1596,
      "ത": 1597,
      "ഥ": 1598,
      "ദ": 1599,
      "ന": 1600,
      "പ": 1601,
      "ബ": 1602,
      "മ": 1603,
      "യ": 1604,
      "ര": 1605,
      "ല": 1606,
      "ള": 1607,
      "ഴ": 1608,
      "വ": 1609,
      "ഷ": 1610,
      "ാ": 1611,
      "ി": 1612,
      "ു": 1613,
      "ൂ": 1614,
      "െ": 1615,
      "േ": 1616,
      "ോ": 1617,
      "്": 1618,
      "ൻ": 1619,
      "ർ": 1620,
      "ං": 1621,
      "අ": 1622,
      "ක": 1623,
      "ග": 1624,
      "ච": 1625,
      "ජ": 1626,
      "ට": 1627,
      "ඨ": 1628,
      "ඩ": 1629,
      "ත": 1630,
      "ද": 1631,
      "ධ": 1632,
      "න": 1633,
      "ප": 1634,
      "බ": 1635,
      "භ": 1636,
      "ම": 1637,
      "ය": 1638,
      "ර": 1639,
      "ල": 1640,
      "ව": 1641,
      "ශ": 1642,
      "ෂ": 1643,
      "ස": 1644,
      "හ": 1645,
      "ළ": 1646,
      "්": 1647,
      "ා": 1648,
      "ි": 1649,
      "ී": 1650,
      "ු": 1651,
      "ෙ": 1652,
      "ේ": 1653,
      "ො": 1654,
      "ෝ": 1655,
      "ก": 1656,
      "ข": 1657,
      "ค": 1658,
      "ง": 1659,
      "จ": 1660,
      "ฉ": 1661,
      "ช": 1662,
      "ซ": 1663,
      "ญ": 1664,
      "ฎ": 1665,
      "ฏ": 1666,
      "ณ": 1667,
      "ด": 1668,
      "ต": 1669,
      "ถ": 1670,
      "ท": 1671,
      "ธ": 1672,
      "น": 1673,
      "บ": 1674,
      "ป": 1675,
      "พ": 1676,
      "ฟ": 1677,
      "ภ": 1678,
      "ม": 1679,
      "ย": 1680,
      "ร": 1681,
      "ฤ": 1682,
      "ล": 1683,
      "ว": 1684,
      "ศ": 1685,
      "ษ": 1686,
      "ส": 1687,
      "ห": 1688,
      "ฬ": 1689,
      "อ": 1690,
      "ฯ": 1691,
      "ะ": 1692,
      "ั": 1693,
      "า": 1694,
      "ำ": 1695,
      "ิ": 1696,
      "ี": 1697,
      "ื": 1698,
      "ุ": 1699,
      "ู": 1700,
      "฿": 1701,
      "เ": 1702,
      "แ": 1703,
      "โ": 1704,
      "ใ": 1705,
      "ไ": 1706,
      "็": 1707,
      "่": 1708,
      "้": 1709,
      "๊": 1710,
      "์": 1711,
      "ກ": 1712,
      "ຂ": 1713,
      "ຄ": 1714,
      "ງ": 1715,
      "ຈ": 1716,
      "ຊ": 1717,
      "ດ": 1718,
      "ຕ": 1719,
      "ທ": 1720,
      "ນ": 1721,
      "ບ": 1722,
      "ປ": 1723,
      "ພ": 1724,
      "ມ": 1725,
      "ຣ": 1726,
      "ລ": 1727,
      "ວ": 1728,
      "ສ": 1729,
      "ຫ": 1730,
      "ອ": 1731,
      "ຮ": 1732,
      "ະ": 1733,
      "ັ": 1734,
      "າ": 1735,
      "ຳ": 1736,
      "ິ": 1737,
      "ີ": 1738,
      "ື": 1739,
      "ູ": 1740,
      "ົ": 1741,
      "ຼ": 1742,
      "ຽ": 1743,
      "ເ": 1744,
      "ແ": 1745,
      "ໂ": 1746,
      "ໄ": 1747,
      "່": 1748,
      "້": 1749,
      "ໍ": 1750,
      "་": 1751,
      "༌": 1752,
      "།": 1753,
      "ཀ": 1754,
      "ཁ": 1755,
      "ག": 1756,
      "ང": 1757,
      "ཆ": 1758,
      "ཇ": 1759,
      "ཏ": 1760,
      "ཐ": 1761,
      "ད": 1762,
      "ན": 1763,
      "པ": 1764,
      "ཕ": 1765,
      "བ": 1766,
      "མ": 1767,
      "ཙ": 1768,
      "ཚ": 1769,
      "ཛ": 1770,
      "འ": 1771,
      "ར": 1772,
      "ལ": 1773,
      "ཤ": 1774,
      "ས": 1775,
      "ཨ": 1776,
      "ི": 1777,
      "ུ": 1778,
      "ེ": 1779,
      "ོ": 1780,
      "ྐ": 1781,
      "ྒ": 1782,
      "ྔ": 1783,
      "ྗ": 1784,
      "ྟ": 1785,
      "ྡ": 1786,
      "ྣ": 1787,
      "ྤ": 1788,
      "ྫ": 1789,
      "ྭ": 1790,
      "ྱ": 1791,
      "ྲ": 1792,
      "ླ": 1793,
      "ྷ": 1794,
      "က": 1795,
      "ခ": 1796,
      "ဂ": 1797,
      "ဃ": 1798,
      "င": 1799,
      "စ": 1800,
      "ဆ": 1801,
      "ဇ": 1802,
      "ည": 1803,
      "တ": 1804,
      "ထ": 1805,
      "ဒ": 1806,
      "န": 1807,
      "ပ": 1808,
      "ဘ": 1809,
      "မ": 1810,
      "ယ": 1811,
      "ရ": 1812,
      "လ": 1813,
      "ဝ": 1814,
      "သ": 1815,
      "ဟ": 1816,
      "အ": 1817,
      "ဦ": 1818,
      "ါ": 1819,
      "ာ": 1820,
      "ိ": 1821,
      "ီ": 1822,
      "ု": 1823,
      "ူ": 1824,
      "ေ": 1825,
      "ံ": 1826,
      "့": 1827,
      "း": 1828,
      "္": 1829,
      "်": 1830,
      "ျ": 1831,
      "ြ": 1832,
      "ွ": 1833,
      "ှ": 1834,
      "ၟ": 1835,
      "ၠ": 1836,
      "ၣ": 1837,
      "ၤ": 1838,
      "ၶ": 1839,
      "Ⴀ": 1840,
      "Ⴁ": 1841,
      "Ⴂ": 1842,
      "Ⴃ": 1843,
      "Ⴄ": 1844,
      "Ⴅ": 1845,
      "Ⴆ": 1846,
      "Ⴇ": 1847,
      "Ⴈ": 1848,
      "Ⴉ": 1849,
      "Ⴊ": 1850,
      "Ⴋ": 1851,
      "Ⴌ": 1852,
      "Ⴍ": 1853,
      "Ⴐ": 1854,
      "Ⴑ": 1855,
      "Ⴒ": 1856,
      "Ⴓ": 1857,
      "Ⴔ": 1858,
      "Ⴕ": 1859,
      "Ⴖ": 1860,
      "Ⴘ": 1861,
      "Ⴙ": 1862,
      "Ⴛ": 1863,
      "Ⴜ": 1864,
      "Ⴡ": 1865,
      "Ⴢ": 1866,
      "Ⴤ": 1867,
      "ა": 1868,
      "ბ": 1869,
      "გ": 1870,
      "დ": 1871,
      "ე": 1872,
      "ვ": 1873,
      "ზ": 1874,
      "თ": 1875,
      "ი": 1876,
      "კ": 1877,
      "ლ": 1878,
      "მ": 1879,
      "ნ": 1880,
      "ო": 1881,
      "პ": 1882,
      "ჟ": 1883,
      "რ": 1884,
      "ს": 1885,
      "ტ": 1886,
      "უ": 1887,
      "ფ": 1888,
      "ქ": 1889,
      "ღ": 1890,
      "ყ": 1891,
      "შ": 1892,
      "ჩ": 1893,
      "ც": 1894,
      "ძ": 1895,
      "წ": 1896,
      "ჭ": 1897,
      "ხ": 1898,
      "ჯ": 1899,
      "ჰ": 1900,
      "ჲ": 1901,
      "ჳ": 1902,
      "ჴ": 1903,
      "ჶ": 1904,
      "ჷ": 1905,
      "ሀ": 1906,
      "ሃ": 1907,
      "ህ": 1908,
      "ለ": 1909,
      "ሉ": 1910,
      "ሊ": 1911,
      "ላ": 1912,
      "ሌ": 1913,
      "ል": 1914,
      "ሎ": 1915,
      "ሐ": 1916,
      "ሓ": 1917,
      "ሕ": 1918,
      "ሖ": 1919,
      "መ": 1920,
      "ሙ": 1921,
      "ሚ": 1922,
      "ማ": 1923,
      "ም": 1924,
      "ሞ": 1925,
      "ሠ": 1926,
      "ሣ": 1927,
      "ሥ": 1928,
      "ረ": 1929,
      "ሩ": 1930,
      "ሪ": 1931,
      "ራ": 1932,
      "ሬ": 1933,
      "ር": 1934,
      "ሮ": 1935,
      "ሰ": 1936,
      "ሱ": 1937,
      "ሲ": 1938,
      "ሳ": 1939,
      "ሴ": 1940,
      "ስ": 1941,
      "ሶ": 1942,
      "ሻ": 1943,
      "ሾ": 1944,
      "ቀ": 1945,
      "ቂ": 1946,
      "ቃ": 1947,
      "ቅ": 1948,
      "ቕ": 1949,
      "በ": 1950,
      "ቡ": 1951,
      "ቢ": 1952,
      "ባ": 1953,
      "ቤ": 1954,
      "ብ": 1955,
      "ተ": 1956,
      "ቱ": 1957,
      "ቲ": 1958,
      "ታ": 1959,
      "ቴ": 1960,
      "ት": 1961,
      "ቶ": 1962,
      "ች": 1963,
      "ኀ": 1964,
      "ኃ": 1965,
      "ኆ": 1966,
      "ነ": 1967,
      "ኑ": 1968,
      "ኒ": 1969,
      "ና": 1970,
      "ኔ": 1971,
      "ን": 1972,
      "ኖ": 1973,
      "ኛ": 1974,
      "አ": 1975,
      "ኢ": 1976,
      "ኣ": 1977,
      "ኤ": 1978,
      "እ": 1979,
      "ኦ": 1980,
      "ከ": 1981,
      "ኪ": 1982,
      "ካ": 1983,
      "ክ": 1984,
      "ኮ": 1985,
      "ኰ": 1986,
      "ኺ": 1987,
      "ወ": 1988,
      "ዉ": 1989,
      "ዊ": 1990,
      "ዋ": 1991,
      "ው": 1992,
      "ዎ": 1993,
      "ዐ": 1994,
      "ዑ": 1995,
      "ዓ": 1996,
      "ዕ": 1997,
      "ዘ": 1998,
      "ዛ": 1999,
      "ዝ": 2000,
      "የ": 2001,
      "ያ": 2002,
      "ዬ": 2003,
      "ይ": 2004,
      "ዮ": 2005,
      "ደ": 2006,
      "ዲ": 2007,
      "ዳ": 2008,
      "ዴ": 2009,
      "ድ": 2010,
      "ዶ": 2011,
      "ጃ": 2012,
      "ጅ": 2013,
      "ጆ": 2014,
      "ገ": 2015,
      "ጉ": 2016,
      "ጊ": 2017,
      "ጋ": 2018,
      "ግ": 2019,
      "ጣ": 2020,
      "ጨ": 2021,
      "ጵ": 2022,
      "ጸ": 2023,
      "ጹ": 2024,
      "ጻ": 2025,
      "ጽ": 2026,
      "ፀ": 2027,
      "ፈ": 2028,
      "ፊ": 2029,
      "ፋ": 2030,
      "ፌ": 2031,
      "ፍ": 2032,
      "ፐ": 2033,
      "፡": 2034,
      "።": 2035,
      "፩": 2036,
      "፬": 2037,
      "፭": 2038,
      "፴": 2039,
      "፹": 2040,
      "፺": 2041,
      "፼": 2042,
      "Ꭰ": 2043,
      "Ꭳ": 2044,
      "Ꭶ": 2045,
      "Ꭸ": 2046,
      "Ꭹ": 2047,
      "Ꮀ": 2048,
      "Ꮃ": 2049,
      "Ꮉ": 2050,
      "Ꮒ": 2051,
      "Ꮕ": 2052,
      "Ꮝ": 2053,
      "Ꮟ": 2054,
      "Ꮳ": 2055,
      "Ꮵ": 2056,
      "Ꮿ": 2057,
      "Ᏹ": 2058,
      "Ᏻ": 2059,
      "ᐁ": 2060,
      "ᐃ": 2061,
      "ᐅ": 2062,
      "ᐊ": 2063,
      "ᐋ": 2064,
      "ᐍ": 2065,
      "ᐎ": 2066,
      "ᐏ": 2067,
      "ᐘ": 2068,
      "ᐙ": 2069,
      "ᐠ": 2070,
      "ᐢ": 2071,
      "ᐣ": 2072,
      "ᐤ": 2073,
      "ᐦ": 2074,
      "ᐧ": 2075,
      "ᐯ": 2076,
      "ᐱ": 2077,
      "ᐳ": 2078,
      "ᐸ": 2079,
      "ᐹ": 2080,
      "ᑊ": 2081,
      "ᑋ": 2082,
      "ᑌ": 2083,
      "ᑎ": 2084,
      "ᑐ": 2085,
      "ᑑ": 2086,
      "ᑕ": 2087,
      "ᑖ": 2088,
      "ᑦ": 2089,
      "ᑭ": 2090,
      "ᑮ": 2091,
      "ᑯ": 2092,
      "ᑰ": 2093,
      "ᑲ": 2094,
      "ᑳ": 2095,
      "ᒃ": 2096,
      "ᒋ": 2097,
      "ᒌ": 2098,
      "ᒍ": 2099,
      "ᒐ": 2100,
      "ᒑ": 2101,
      "ᒡ": 2102,
      "ᒣ": 2103,
      "ᒥ": 2104,
      "ᒧ": 2105,
      "ᒪ": 2106,
      "ᒻ": 2107,
      "ᒼ": 2108,
      "ᓀ": 2109,
      "ᓂ": 2110,
      "ᓃ": 2111,
      "ᓄ": 2112,
      "ᓅ": 2113,
      "ᓇ": 2114,
      "ᓈ": 2115,
      "ᓐ": 2116,
      "ᓕ": 2117,
      "ᓗ": 2118,
      "ᓘ": 2119,
      "ᓚ": 2120,
      "ᓛ": 2121,
      "ᓪ": 2122,
      "ᓯ": 2123,
      "ᓱ": 2124,
      "ᓴ": 2125,
      "ᓵ": 2126,
      "ᔅ": 2127,
      "ᔑ": 2128,
      "ᔨ": 2129,
      "ᔪ": 2130,
      "ᔫ": 2131,
      "ᔭ": 2132,
      "ᔮ": 2133,
      "ᕄ": 2134,
      "ᕇ": 2135,
      "ᕈ": 2136,
      "ᕌ": 2137,
      "ᕐ": 2138,
      "ᕕ": 2139,
      "ᕗ": 2140,
      "ᕙ": 2141,
      "ᕠ": 2142,
      "ᕱ": 2143,
      "ᕲ": 2144,
      "ᕿ": 2145,
      "ᖁ": 2146,
      "ᖃ": 2147,
      "ᖅ": 2148,
      "ᖌ": 2149,
      "ᖏ": 2150,
      "ᖓ": 2151,
      "ᖕ": 2152,
      "ᖚ": 2153,
      "ᖠ": 2154,
      "ᖨ": 2155,
      "ᖩ": 2156,
      "ᖪ": 2157,
      "ᖫ": 2158,
      "ᖬ": 2159,
      "ᖭ": 2160,
      "ᖽ": 2161,
      "ᖿ": 2162,
      "ᗰ": 2163,
      "ᗱ": 2164,
      "ᙵ": 2165,
      "ᚠ": 2166,
      "ᚢ": 2167,
      "ᚱ": 2168,
      "ᚴ": 2169,
      "ᚾ": 2170,
      "ᛅ": 2171,
      "ᛋ": 2172,
      "ᛏ": 2173,
      "ᛘ": 2174,
      "ក": 2175,
      "ខ": 2176,
      "គ": 2177,
      "ឃ": 2178,
      "ង": 2179,
      "ច": 2180,
      "ជ": 2181,
      "ញ": 2182,
      "ដ": 2183,
      "ឋ": 2184,
      "ណ": 2185,
      "ត": 2186,
      "ថ": 2187,
      "ទ": 2188,
      "ធ": 2189,
      "ន": 2190,
      "ប": 2191,
      "ផ": 2192,
      "ព": 2193,
      "ភ": 2194,
      "ម": 2195,
      "យ": 2196,
      "រ": 2197,
      "ល": 2198,
      "វ": 2199,
      "ស": 2200,
      "ហ": 2201,
      "អ": 2202,
      "ឥ": 2203,
      "ា": 2204,
      "ិ": 2205,
      "ី": 2206,
      "ុ": 2207,
      "ូ": 2208,
      "ួ": 2209,
      "ឿ": 2210,
      "ៀ": 2211,
      "េ": 2212,
      "ែ": 2213,
      "ៃ": 2214,
      "ោ": 2215,
      "ំ": 2216,
      "ះ": 2217,
      "ៈ": 2218,
      "៉": 2219,
      "៊": 2220,
      "់": 2221,
      "៍": 2222,
      "័": 2223,
      "្": 2224,
      "៛": 2225,
      "᠊": 2226,
      "᠎": 2227,
      "ᠠ": 2228,
      "ᠡ": 2229,
      "ᠢ": 2230,
      "ᠤ": 2231,
      "ᠥ": 2232,
      "ᠦ": 2233,
      "ᠨ": 2234,
      "ᠩ": 2235,
      "ᠬ": 2236,
      "ᠭ": 2237,
      "ᠮ": 2238,
      "ᠯ": 2239,
      "ᠰ": 2240,
      "ᠲ": 2241,
      "ᠳ": 2242,
      "ᠷ": 2243,
      "ᡟ": 2244,
      "ᡠ": 2245,
      "ᡤ": 2246,
      "ᡥ": 2247,
      "ᡩ": 2248,
      "ᡳ": 2249,
      "ᡴ": 2250,
      "ᥑ": 2251,
      "ᥒ": 2252,
      "ᥨ": 2253,
      "ᥰ": 2254,
      "ᴀ": 2255,
      "ᴇ": 2256,
      "ᴉ": 2257,
      "ᴧ": 2258,
      "ᵃ": 2259,
      "ᵛ": 2260,
      "ᵻ": 2261,
      "ᵽ": 2262,
      "ᶄ": 2263,
      "ᶇ": 2264,
      "Ḃ": 2265,
      "ḃ": 2266,
      "ḇ": 2267,
      "Ḉ": 2268,
      "ḉ": 2269,
      "Ḋ": 2270,
      "ḋ": 2271,
      "Ḍ": 2272,
      "ḍ": 2273,
      "Ḏ": 2274,
      "ḏ": 2275,
      "Ḑ": 2276,
      "ḑ": 2277,
      "ḓ": 2278,
      "ḕ": 2279,
      "ḗ": 2280,
      "Ḟ": 2281,
      "ḟ": 2282,
      "Ḡ": 2283,
      "ḡ": 2284,
      "ḣ": 2285,
      "Ḥ": 2286,
      "ḥ": 2287,
      "Ḩ": 2288,
      "ḩ": 2289,
      "Ḫ": 2290,
      "ḫ": 2291,
      "ḭ": 2292,
      "ḯ": 2293,
      "Ḱ": 2294,
      "ḱ": 2295,
      "Ḳ": 2296,
      "ḳ": 2297,
      "Ḵ": 2298,
      "ḵ": 2299,
      "ḷ": 2300,
      "ḻ": 2301,
      "Ḽ": 2302,
      "ḽ": 2303,
      "ḿ": 2304,
      "ṁ": 2305,
      "Ṃ": 2306,
      "ṃ": 2307,
      "ṅ": 2308,
      "ṇ": 2309,
      "ṉ": 2310,
      "ṑ": 2311,
      "ṓ": 2312,
      "ṕ": 2313,
      "ṗ": 2314,
      "ṙ": 2315,
      "Ṛ": 2316,
      "ṛ": 2317,
      "ṟ": 2318,
      "Ṡ": 2319,
      "ṡ": 2320,
      "Ṣ": 2321,
      "ṣ": 2322,
      "Ṫ": 2323,
      "ṫ": 2324,
      "Ṭ": 2325,
      "ṭ": 2326,
      "Ṯ": 2327,
      "ṯ": 2328,
      "ṳ": 2329,
      "ṻ": 2330,
      "ẃ": 2331,
      "ẋ": 2332,
      "Ẍ": 2333,
      "ẍ": 2334,
      "ẏ": 2335,
      "ẑ": 2336,
      "Ẓ": 2337,
      "ẓ": 2338,
      "Ẕ": 2339,
      "ẕ": 2340,
      "ẖ": 2341,
      "ẞ": 2342,
      "ạ": 2343,
      "ả": 2344,
      "ấ": 2345,
      "ầ": 2346,
      "ẩ": 2347,
      "ẫ": 2348,
      "ậ": 2349,
      "ắ": 2350,
      "ằ": 2351,
      "ẵ": 2352,
      "ặ": 2353,
      "Ẹ": 2354,
      "ẹ": 2355,
      "ẻ": 2356,
      "ẽ": 2357,
      "ế": 2358,
      "ề": 2359,
      "ể": 2360,
      "ễ": 2361,
      "ệ": 2362,
      "ỉ": 2363,
      "ị": 2364,
      "Ọ": 2365,
      "ọ": 2366,
      "ỏ": 2367,
      "ố": 2368,
      "ồ": 2369,
      "ổ": 2370,
      "ỗ": 2371,
      "ộ": 2372,
      "ớ": 2373,
      "ờ": 2374,
      "Ở": 2375,
      "ở": 2376,
      "ỡ": 2377,
      "ợ": 2378,
      "ụ": 2379,
      "ủ": 2380,
      "ứ": 2381,
      "ừ": 2382,
      "ử": 2383,
      "ữ": 2384,
      "ự": 2385,
      "ỳ": 2386,
      "ỹ": 2387,
      "ἀ": 2388,
      "ἁ": 2389,
      "ἂ": 2390,
      "ἄ": 2391,
      "ἅ": 2392,
      "ἇ": 2393,
      "Ἀ": 2394,
      "Ἁ": 2395,
      "Ἂ": 2396,
      "Ἃ": 2397,
      "Ἄ": 2398,
      "Ἅ": 2399,
      "Ἆ": 2400,
      "ἐ": 2401,
      "ἑ": 2402,
      "ἔ": 2403,
      "ἕ": 2404,
      "Ἐ": 2405,
      "Ἑ": 2406,
      "Ἔ": 2407,
      "Ἕ": 2408,
      "ἠ": 2409,
      "ἡ": 2410,
      "ἤ": 2411,
      "ἥ": 2412,
      "ἦ": 2413,
      "ἧ": 2414,
      "Ἠ": 2415,
      "Ἡ": 2416,
      "Ἤ": 2417,
      "Ἥ": 2418,
      "ἰ": 2419,
      "ἱ": 2420,
      "ἴ": 2421,
      "ἵ": 2422,
      "ἶ": 2423,
      "ἷ": 2424,
      "Ἰ": 2425,
      "Ἱ": 2426,
      "Ἴ": 2427,
      "Ἶ": 2428,
      "ὀ": 2429,
      "ὁ": 2430,
      "ὃ": 2431,
      "ὄ": 2432,
      "ὅ": 2433,
      "Ὀ": 2434,
      "Ὁ": 2435,
      "Ὄ": 2436,
      "Ὅ": 2437,
      "ὐ": 2438,
      "ὑ": 2439,
      "ὔ": 2440,
      "ὕ": 2441,
      "ὖ": 2442,
      "Ὑ": 2443,
      "Ὕ": 2444,
      "ὡ": 2445,
      "ὦ": 2446,
      "Ὠ": 2447,
      "Ὡ": 2448,
      "ὰ": 2449,
      "ὲ": 2450,
      "ὴ": 2451,
      "ὶ": 2452,
      "ὸ": 2453,
      "ὺ": 2454,
      "ὼ": 2455,
      "ᾀ": 2456,
      "ᾍ": 2457,
      "ᾎ": 2458,
      "ᾠ": 2459,
      "ᾰ": 2460,
      "ᾱ": 2461,
      "ᾳ": 2462,
      "ᾴ": 2463,
      "ᾶ": 2464,
      "᾿": 2465,
      "ῂ": 2466,
      "ῃ": 2467,
      "ῆ": 2468,
      "ῇ": 2469,
      "Ὲ": 2470,
      "ῑ": 2471,
      "ῖ": 2472,
      "ῠ": 2473,
      "ῤ": 2474,
      "ῥ": 2475,
      "ῦ": 2476,
      "Ῥ": 2477,
      "ῳ": 2478,
      "ῴ": 2479,
      "ῶ": 2480,
      "ῷ": 2481,
      "῾": 2482,
      "​": 2483,
      "‌": 2484,
      "‍": 2485,
      "‎": 2486,
      "‏": 2487,
      "‐": 2488,
      "‑": 2489,
      "‒": 2490,
      "–": 2491,
      "—": 2492,
      "―": 2493,
      "‖": 2494,
      "‘": 2495,
      "’": 2496,
      "‚": 2497,
      "‛": 2498,
      "“": 2499,
      "”": 2500,
      "„": 2501,
      "‟": 2502,
      "†": 2503,
      "‡": 2504,
      "•": 2505,
      "․": 2506,
      "…": 2507,
      "‪": 2508,
      "‬": 2509,
      "‭": 2510,
      "‰": 2511,
      "′": 2512,
      "″": 2513,
      "‴": 2514,
      "‹": 2515,
      "›": 2516,
      "※": 2517,
      "‼": 2518,
      "⁃": 2519,
      "⁄": 2520,
      "⁇": 2521,
      "⁠": 2522,
      "⁰": 2523,
      "ⁱ": 2524,
      "⁴": 2525,
      "⁵": 2526,
      "⁷": 2527,
      "⁸": 2528,
      "⁹": 2529,
      "⁺": 2530,
      "⁻": 2531,
      "ⁿ": 2532,
      "₀": 2533,
      "₁": 2534,
      "₂": 2535,
      "₃": 2536,
      "₄": 2537,
      "₅": 2538,
      "₆": 2539,
      "₇": 2540,
      "₉": 2541,
      "ₐ": 2542,
      "₡": 2543,
      "₣": 2544,
      "₤": 2545,
      "₥": 2546,
      "₦": 2547,
      "₧": 2548,
      "₨": 2549,
      "₩": 2550,
      "₪": 2551,
      "₫": 2552,
      "€": 2553,
      "₮": 2554,
      "₱": 2555,
      "₲": 2556,
      "₴": 2557,
      "₵": 2558,
      "₷": 2559,
      "₸": 2560,
      "₹": 2561,
      "₺": 2562,
      "₼": 2563,
      "₽": 2564,
      "₾": 2565,
      "⃝": 2566,
      "ℂ": 2567,
      "℃": 2568,
      "℅": 2569,
      "ℋ": 2570,
      "ℏ": 2571,
      "ℓ": 2572,
      "№": 2573,
      "ℛ": 2574,
      "ℜ": 2575,
      "ℝ": 2576,
      "™": 2577,
      "ℤ": 2578,
      "ℰ": 2579,
      "ℳ": 2580,
      "ℵ": 2581,
      "⅓": 2582,
      "⅔": 2583,
      "⅛": 2584,
      "⅝": 2585,
      "⅞": 2586,
      "Ⅱ": 2587,
      "Ⅲ": 2588,
      "ↄ": 2589,
      "←": 2590,
      "↑": 2591,
      "→": 2592,
      "↓": 2593,
      "↔": 2594,
      "↘": 2595,
      "↠": 2596,
      "↨": 2597,
      "↵": 2598,
      "↹": 2599,
      "⇌": 2600,
      "⇒": 2601,
      "⇔": 2602,
      "⇧": 2603,
      "∀": 2604,
      "∂": 2605,
      "∃": 2606,
      "∅": 2607,
      "∆": 2608,
      "∇": 2609,
      "∈": 2610,
      "∉": 2611,
      "∏": 2612,
      "∑": 2613,
      "−": 2614,
      "∕": 2615,
      "∗": 2616,
      "∘": 2617,
      "∙": 2618,
      "√": 2619,
      "∝": 2620,
      "∞": 2621,
      "∠": 2622,
      "∥": 2623,
      "∧": 2624,
      "∨": 2625,
      "∩": 2626,
      "∪": 2627,
      "∫": 2628,
      "∬": 2629,
      "∴": 2630,
      "∶": 2631,
      "∼": 2632,
      "≈": 2633,
      "≝": 2634,
      "≠": 2635,
      "≡": 2636,
      "≤": 2637,
      "≥": 2638,
      "≪": 2639,
      "≫": 2640,
      "⊂": 2641,
      "⊆": 2642,
      "⊓": 2643,
      "⊕": 2644,
      "⊖": 2645,
      "⊗": 2646,
      "⊙": 2647,
      "⊞": 2648,
      "⊥": 2649,
      "⋅": 2650,
      "⋆": 2651,
      "⋯": 2652,
      "⌊": 2653,
      "⌋": 2654,
      "⌐": 2655,
      "⌒": 2656,
      "⌘": 2657,
      "⌠": 2658,
      "⌡": 2659,
      "⌥": 2660,
      "②": 2661,
      "⑨": 2662,
      "─": 2663,
      "│": 2664,
      "┌": 2665,
      "┐": 2666,
      "└": 2667,
      "┘": 2668,
      "├": 2669,
      "┤": 2670,
      "┬": 2671,
      "┴": 2672,
      "┼": 2673,
      "═": 2674,
      "║": 2675,
      "╒": 2676,
      "╓": 2677,
      "╔": 2678,
      "╕": 2679,
      "╖": 2680,
      "╗": 2681,
      "╙": 2682,
      "╚": 2683,
      "╛": 2684,
      "╜": 2685,
      "╝": 2686,
      "╞": 2687,
      "╟": 2688,
      "╠": 2689,
      "╡": 2690,
      "╢": 2691,
      "╣": 2692,
      "╤": 2693,
      "╥": 2694,
      "╦": 2695,
      "╧": 2696,
      "╨": 2697,
      "╩": 2698,
      "╪": 2699,
      "╫": 2700,
      "╬": 2701,
      "▀": 2702,
      "▄": 2703,
      "█": 2704,
      "▌": 2705,
      "▐": 2706,
      "░": 2707,
      "▒": 2708,
      "▓": 2709,
      "■": 2710,
      "□": 2711,
      "▪": 2712,
      "▶": 2713,
      "►": 2714,
      "◆": 2715,
      "○": 2716,
      "◌": 2717,
      "●": 2718,
      "◦": 2719,
      "☀": 2720,
      "☂": 2721,
      "☃": 2722,
      "★": 2723,
      "☆": 2724,
      "☉": 2725,
      "☪": 2726,
      "☭": 2727,
      "☼": 2728,
      "♀": 2729,
      "♂": 2730,
      "♌": 2731,
      "♏": 2732,
      "♓": 2733,
      "♔": 2734,
      "♕": 2735,
      "♖": 2736,
      "♗": 2737,
      "♘": 2738,
      "♙": 2739,
      "♚": 2740,
      "♛": 2741,
      "♜": 2742,
      "♝": 2743,
      "♞": 2744,
      "♠": 2745,
      "♡": 2746,
      "♥": 2747,
      "♦": 2748,
      "♨": 2749,
      "♪": 2750,
      "♫": 2751,
      "♭": 2752,
      "♯": 2753,
      "✡": 2754,
      "❗": 2755,
      "➣": 2756,
      "⟨": 2757,
      "⟩": 2758,
      "⟹": 2759,
      "⠀": 2760,
      "⠺": 2761,
      "⠾": 2762,
      "⤵": 2763,
      "⨯": 2764,
      "Ᵽ": 2765,
      "Ⱨ": 2766,
      "ⱨ": 2767,
      "Ⱪ": 2768,
      "ⱪ": 2769,
      "Ⱬ": 2770,
      "ⱬ": 2771,
      "Ɑ": 2772,
      "ⲁ": 2773,
      "ⲉ": 2774,
      "ⲏ": 2775,
      "ⲓ": 2776,
      "ⲕ": 2777,
      "ⲗ": 2778,
      "ⲙ": 2779,
      "ⲛ": 2780,
      "ⲟ": 2781,
      "ⲡ": 2782,
      "ⲣ": 2783,
      "ⲥ": 2784,
      "ⲧ": 2785,
      "ⲭ": 2786,
      "ⴀ": 2787,
      "ⴍ": 2788,
      "ⴰ": 2789,
      "ⴱ": 2790,
      "ⴳ": 2791,
      "ⴷ": 2792,
      "ⴹ": 2793,
      "ⴻ": 2794,
      "ⴼ": 2795,
      "ⴽ": 2796,
      "ⴾ": 2797,
      "ⵀ": 2798,
      "ⵃ": 2799,
      "ⵄ": 2800,
      "ⵉ": 2801,
      "ⵊ": 2802,
      "ⵍ": 2803,
      "ⵎ": 2804,
      "ⵏ": 2805,
      "ⵓ": 2806,
      "ⵔ": 2807,
      "ⵕ": 2808,
      "ⵖ": 2809,
      "ⵙ": 2810,
      "ⵛ": 2811,
      "ⵜ": 2812,
      "ⵝ": 2813,
      "ⵟ": 2814,
      "ⵡ": 2815,
      "ⵢ": 2816,
      "ⵣ": 2817,
      "⸮": 2818,
      "⸸": 2819,
      "、": 2820,
      "。": 2821,
      "々": 2822,
      "〇": 2823,
      "〈": 2824,
      "〉": 2825,
      "《": 2826,
      "》": 2827,
      "「": 2828,
      "」": 2829,
      "『": 2830,
      "』": 2831,
      "〖": 2832,
      "〗": 2833,
      "〜": 2834,
      "ぁ": 2835,
      "あ": 2836,
      "ぃ": 2837,
      "い": 2838,
      "ぅ": 2839,
      "う": 2840,
      "え": 2841,
      "お": 2842,
      "か": 2843,
      "が": 2844,
      "き": 2845,
      "ぎ": 2846,
      "く": 2847,
      "ぐ": 2848,
      "け": 2849,
      "げ": 2850,
      "こ": 2851,
      "ご": 2852,
      "さ": 2853,
      "ざ": 2854,
      "し": 2855,
      "じ": 2856,
      "す": 2857,
      "ず": 2858,
      "せ": 2859,
      "ぜ": 2860,
      "そ": 2861,
      "ぞ": 2862,
      "た": 2863,
      "だ": 2864,
      "ち": 2865,
      "っ": 2866,
      "つ": 2867,
      "づ": 2868,
      "て": 2869,
      "で": 2870,
      "と": 2871,
      "ど": 2872,
      "な": 2873,
      "に": 2874,
      "ぬ": 2875,
      "ね": 2876,
      "の": 2877,
      "は": 2878,
      "ば": 2879,
      "ひ": 2880,
      "び": 2881,
      "ふ": 2882,
      "ぶ": 2883,
      "ぷ": 2884,
      "へ": 2885,
      "べ": 2886,
      "ぺ": 2887,
      "ほ": 2888,
      "ぼ": 2889,
      "ぽ": 2890,
      "ま": 2891,
      "み": 2892,
      "む": 2893,
      "め": 2894,
      "も": 2895,
      "ゃ": 2896,
      "や": 2897,
      "ゅ": 2898,
      "ゆ": 2899,
      "ょ": 2900,
      "よ": 2901,
      "ら": 2902,
      "り": 2903,
      "る": 2904,
      "れ": 2905,
      "ろ": 2906,
      "わ": 2907,
      "ゑ": 2908,
      "を": 2909,
      "ん": 2910,
      "ァ": 2911,
      "ア": 2912,
      "ィ": 2913,
      "イ": 2914,
      "ゥ": 2915,
      "ウ": 2916,
      "ェ": 2917,
      "エ": 2918,
      "ォ": 2919,
      "オ": 2920,
      "カ": 2921,
      "ガ": 2922,
      "キ": 2923,
      "ギ": 2924,
      "ク": 2925,
      "グ": 2926,
      "ケ": 2927,
      "ゲ": 2928,
      "コ": 2929,
      "ゴ": 2930,
      "サ": 2931,
      "ザ": 2932,
      "シ": 2933,
      "ジ": 2934,
      "ス": 2935,
      "ズ": 2936,
      "セ": 2937,
      "ゼ": 2938,
      "ソ": 2939,
      "ゾ": 2940,
      "タ": 2941,
      "ダ": 2942,
      "チ": 2943,
      "ッ": 2944,
      "ツ": 2945,
      "ヅ": 2946,
      "テ": 2947,
      "デ": 2948,
      "ト": 2949,
      "ド": 2950,
      "ナ": 2951,
      "ニ": 2952,
      "ヌ": 2953,
      "ネ": 2954,
      "ノ": 2955,
      "ハ": 2956,
      "バ": 2957,
      "パ": 2958,
      "ヒ": 2959,
      "ビ": 2960,
      "ピ": 2961,
      "フ": 2962,
      "ブ": 2963,
      "プ": 2964,
      "ヘ": 2965,
      "ベ": 2966,
      "ペ": 2967,
      "ホ": 2968,
      "ボ": 2969,
      "ポ": 2970,
      "マ": 2971,
      "ミ": 2972,
      "ム": 2973,
      "メ": 2974,
      "モ": 2975,
      "ャ": 2976,
      "ヤ": 2977,
      "ュ": 2978,
      "ユ": 2979,
      "ョ": 2980,
      "ヨ": 2981,
      "ラ": 2982,
      "リ": 2983,
      "ル": 2984,
      "レ": 2985,
      "ロ": 2986,
      "ワ": 2987,
      "ヰ": 2988,
      "ヱ": 2989,
      "ヲ": 2990,
      "ン": 2991,
      "ヴ": 2992,
      "ヶ": 2993,
      "・": 2994,
      "ー": 2995,
      "ㄊ": 2996,
      "ㄋ": 2997,
      "ㄐ": 2998,
      "ㄓ": 2999,
      "ㄢ": 3000,
      "ㄤ": 3001,
      "ㄥ": 3002,
      "ㄨ": 3003,
      "ㅇ": 3004,
      "ㅋ": 3005,
      "ㅡ": 3006,
      "ㅣ": 3007,
      "ㇰ": 3008,
      "ㇼ": 3009,
      "ㇽ": 3010,
      "㈜": 3011,
      "㎭": 3012,
      "䷿": 3013,
      "一": 3014,
      "丁": 3015,
      "七": 3016,
      "万": 3017,
      "丈": 3018,
      "三": 3019,
      "上": 3020,
      "下": 3021,
      "丌": 3022,
      "不": 3023,
      "与": 3024,
      "丑": 3025,
      "且": 3026,
      "世": 3027,
      "丘": 3028,
      "业": 3029,
      "东": 3030,
      "丝": 3031,
      "両": 3032,
      "丢": 3033,
      "两": 3034,
      "个": 3035,
      "中": 3036,
      "丰": 3037,
      "串": 3038,
      "丸": 3039,
      "丹": 3040,
      "为": 3041,
      "主": 3042,
      "丽": 3043,
      "乃": 3044,
      "久": 3045,
      "义": 3046,
      "之": 3047,
      "乌": 3048,
      "乎": 3049,
      "乐": 3050,
      "乔": 3051,
      "乗": 3052,
      "乘": 3053,
      "乙": 3054,
      "九": 3055,
      "乞": 3056,
      "也": 3057,
      "习": 3058,
      "乡": 3059,
      "书": 3060,
      "买": 3061,
      "乱": 3062,
      "乾": 3063,
      "亀": 3064,
      "亂": 3065,
      "争": 3066,
      "事": 3067,
      "二": 3068,
      "于": 3069,
      "云": 3070,
      "互": 3071,
      "五": 3072,
      "井": 3073,
      "亚": 3074,
      "亜": 3075,
      "亞": 3076,
      "交": 3077,
      "亥": 3078,
      "亦": 3079,
      "产": 3080,
      "亨": 3081,
      "京": 3082,
      "亭": 3083,
      "亮": 3084,
      "亲": 3085,
      "亳": 3086,
      "人": 3087,
      "什": 3088,
      "仁": 3089,
      "仇": 3090,
      "今": 3091,
      "介": 3092,
      "仏": 3093,
      "仑": 3094,
      "仔": 3095,
      "仕": 3096,
      "付": 3097,
      "仙": 3098,
      "仝": 3099,
      "代": 3100,
      "令": 3101,
      "以": 3102,
      "仪": 3103,
      "们": 3104,
      "仮": 3105,
      "仲": 3106,
      "件": 3107,
      "价": 3108,
      "任": 3109,
      "份": 3110,
      "企": 3111,
      "伊": 3112,
      "伍": 3113,
      "伎": 3114,
      "伏": 3115,
      "伐": 3116,
      "休": 3117,
      "会": 3118,
      "伝": 3119,
      "传": 3120,
      "伦": 3121,
      "伯": 3122,
      "伸": 3123,
      "伽": 3124,
      "位": 3125,
      "低": 3126,
      "住": 3127,
      "佐": 3128,
      "佑": 3129,
      "体": 3130,
      "何": 3131,
      "佗": 3132,
      "余": 3133,
      "佛": 3134,
      "作": 3135,
      "你": 3136,
      "佩": 3137,
      "佳": 3138,
      "使": 3139,
      "來": 3140,
      "例": 3141,
      "侍": 3142,
      "侑": 3143,
      "依": 3144,
      "侨": 3145,
      "侯": 3146,
      "便": 3147,
      "促": 3148,
      "俄": 3149,
      "俊": 3150,
      "俗": 3151,
      "保": 3152,
      "俞": 3153,
      "俟": 3154,
      "俠": 3155,
      "信": 3156,
      "俣": 3157,
      "俥": 3158,
      "修": 3159,
      "俱": 3160,
      "倉": 3161,
      "個": 3162,
      "倍": 3163,
      "倖": 3164,
      "候": 3165,
      "倚": 3166,
      "倫": 3167,
      "倭": 3168,
      "倶": 3169,
      "倻": 3170,
      "倾": 3171,
      "假": 3172,
      "偉": 3173,
      "停": 3174,
      "健": 3175,
      "偶": 3176,
      "傅": 3177,
      "傌": 3178,
      "備": 3179,
      "傳": 3180,
      "働": 3181,
      "像": 3182,
      "僑": 3183,
      "僕": 3184,
      "僚": 3185,
      "僧": 3186,
      "儀": 3187,
      "億": 3188,
      "儉": 3189,
      "儒": 3190,
      "優": 3191,
      "儿": 3192,
      "兀": 3193,
      "允": 3194,
      "元": 3195,
      "兄": 3196,
      "充": 3197,
      "兆": 3198,
      "先": 3199,
      "光": 3200,
      "克": 3201,
      "免": 3202,
      "児": 3203,
      "兒": 3204,
      "兔": 3205,
      "党": 3206,
      "兜": 3207,
      "入": 3208,
      "內": 3209,
      "全": 3210,
      "兩": 3211,
      "八": 3212,
      "公": 3213,
      "六": 3214,
      "兰": 3215,
      "共": 3216,
      "关": 3217,
      "兴": 3218,
      "兵": 3219,
      "其": 3220,
      "具": 3221,
      "典": 3222,
      "兹": 3223,
      "养": 3224,
      "兼": 3225,
      "冀": 3226,
      "内": 3227,
      "円": 3228,
      "冊": 3229,
      "再": 3230,
      "冒": 3231,
      "写": 3232,
      "军": 3233,
      "农": 3234,
      "冠": 3235,
      "冤": 3236,
      "冥": 3237,
      "冬": 3238,
      "冯": 3239,
      "冲": 3240,
      "冶": 3241,
      "冷": 3242,
      "冼": 3243,
      "净": 3244,
      "准": 3245,
      "凈": 3246,
      "凉": 3247,
      "凌": 3248,
      "凡": 3249,
      "凰": 3250,
      "凱": 3251,
      "出": 3252,
      "函": 3253,
      "刀": 3254,
      "刁": 3255,
      "分": 3256,
      "切": 3257,
      "刊": 3258,
      "刍": 3259,
      "刑": 3260,
      "列": 3261,
      "刘": 3262,
      "则": 3263,
      "刚": 3264,
      "初": 3265,
      "判": 3266,
      "別": 3267,
      "利": 3268,
      "别": 3269,
      "到": 3270,
      "制": 3271,
      "刹": 3272,
      "刺": 3273,
      "則": 3274,
      "剌": 3275,
      "前": 3276,
      "剑": 3277,
      "剛": 3278,
      "剣": 3279,
      "副": 3280,
      "剱": 3281,
      "創": 3282,
      "劃": 3283,
      "劇": 3284,
      "劉": 3285,
      "劍": 3286,
      "力": 3287,
      "功": 3288,
      "加": 3289,
      "务": 3290,
      "动": 3291,
      "助": 3292,
      "努": 3293,
      "劫": 3294,
      "励": 3295,
      "劳": 3296,
      "労": 3297,
      "勁": 3298,
      "勃": 3299,
      "勇": 3300,
      "勉": 3301,
      "勋": 3302,
      "勒": 3303,
      "動": 3304,
      "勘": 3305,
      "務": 3306,
      "勝": 3307,
      "勞": 3308,
      "勢": 3309,
      "勤": 3310,
      "勳": 3311,
      "勾": 3312,
      "包": 3313,
      "匈": 3314,
      "匐": 3315,
      "匕": 3316,
      "化": 3317,
      "北": 3318,
      "匡": 3319,
      "匪": 3320,
      "匮": 3321,
      "匱": 3322,
      "区": 3323,
      "医": 3324,
      "區": 3325,
      "十": 3326,
      "千": 3327,
      "午": 3328,
      "半": 3329,
      "卍": 3330,
      "华": 3331,
      "协": 3332,
      "卐": 3333,
      "卑": 3334,
      "卒": 3335,
      "卓": 3336,
      "協": 3337,
      "单": 3338,
      "卖": 3339,
      "南": 3340,
      "博": 3341,
      "卜": 3342,
      "占": 3343,
      "卡": 3344,
      "卢": 3345,
      "卦": 3346,
      "卫": 3347,
      "卯": 3348,
      "印": 3349,
      "卷": 3350,
      "卿": 3351,
      "厂": 3352,
      "厚": 3353,
      "原": 3354,
      "厥": 3355,
      "厦": 3356,
      "厨": 3357,
      "厩": 3358,
      "厳": 3359,
      "去": 3360,
      "县": 3361,
      "参": 3362,
      "參": 3363,
      "又": 3364,
      "及": 3365,
      "友": 3366,
      "反": 3367,
      "发": 3368,
      "叔": 3369,
      "取": 3370,
      "受": 3371,
      "变": 3372,
      "叟": 3373,
      "叡": 3374,
      "口": 3375,
      "古": 3376,
      "句": 3377,
      "叮": 3378,
      "可": 3379,
      "台": 3380,
      "史": 3381,
      "右": 3382,
      "叶": 3383,
      "号": 3384,
      "司": 3385,
      "各": 3386,
      "合": 3387,
      "吉": 3388,
      "同": 3389,
      "名": 3390,
      "后": 3391,
      "吐": 3392,
      "向": 3393,
      "吒": 3394,
      "吕": 3395,
      "吗": 3396,
      "君": 3397,
      "含": 3398,
      "启": 3399,
      "吳": 3400,
      "吴": 3401,
      "吸": 3402,
      "吹": 3403,
      "吻": 3404,
      "吾": 3405,
      "呂": 3406,
      "呈": 3407,
      "呉": 3408,
      "呑": 3409,
      "员": 3410,
      "周": 3411,
      "呪": 3412,
      "味": 3413,
      "呴": 3414,
      "呼": 3415,
      "命": 3416,
      "咄": 3417,
      "咋": 3418,
      "和": 3419,
      "咥": 3420,
      "咪": 3421,
      "咫": 3422,
      "咲": 3423,
      "咸": 3424,
      "哀": 3425,
      "品": 3426,
      "哇": 3427,
      "哈": 3428,
      "哉": 3429,
      "員": 3430,
      "哥": 3431,
      "哩": 3432,
      "哭": 3433,
      "哲": 3434,
      "唄": 3435,
      "唐": 3436,
      "唱": 3437,
      "唵": 3438,
      "商": 3439,
      "問": 3440,
      "啓": 3441,
      "啜": 3442,
      "啟": 3443,
      "喀": 3444,
      "善": 3445,
      "喇": 3446,
      "喜": 3447,
      "喫": 3448,
      "喬": 3449,
      "單": 3450,
      "喵": 3451,
      "営": 3452,
      "嗚": 3453,
      "嗢": 3454,
      "嗣": 3455,
      "嘉": 3456,
      "嘗": 3457,
      "嘘": 3458,
      "嘛": 3459,
      "嘿": 3460,
      "噌": 3461,
      "噜": 3462,
      "噠": 3463,
      "器": 3464,
      "噶": 3465,
      "噹": 3466,
      "噺": 3467,
      "嚳": 3468,
      "嚴": 3469,
      "四": 3470,
      "回": 3471,
      "因": 3472,
      "团": 3473,
      "団": 3474,
      "园": 3475,
      "囲": 3476,
      "図": 3477,
      "围": 3478,
      "固": 3479,
      "国": 3480,
      "图": 3481,
      "圆": 3482,
      "國": 3483,
      "圍": 3484,
      "圏": 3485,
      "園": 3486,
      "圓": 3487,
      "圖": 3488,
      "團": 3489,
      "圜": 3490,
      "土": 3491,
      "圧": 3492,
      "在": 3493,
      "圭": 3494,
      "地": 3495,
      "圳": 3496,
      "场": 3497,
      "圻": 3498,
      "址": 3499,
      "坂": 3500,
      "均": 3501,
      "坊": 3502,
      "坎": 3503,
      "坐": 3504,
      "坝": 3505,
      "坤": 3506,
      "坦": 3507,
      "坪": 3508,
      "垂": 3509,
      "型": 3510,
      "垒": 3511,
      "垕": 3512,
      "垠": 3513,
      "城": 3514,
      "埔": 3515,
      "域": 3516,
      "執": 3517,
      "基": 3518,
      "埼": 3519,
      "堀": 3520,
      "堂": 3521,
      "堅": 3522,
      "堡": 3523,
      "堤": 3524,
      "堯": 3525,
      "堰": 3526,
      "報": 3527,
      "場": 3528,
      "堿": 3529,
      "塔": 3530,
      "塗": 3531,
      "塚": 3532,
      "塞": 3533,
      "塤": 3534,
      "塩": 3535,
      "塾": 3536,
      "境": 3537,
      "墓": 3538,
      "増": 3539,
      "增": 3540,
      "墟": 3541,
      "墨": 3542,
      "墩": 3543,
      "墳": 3544,
      "墾": 3545,
      "壁": 3546,
      "壇": 3547,
      "壘": 3548,
      "壤": 3549,
      "壩": 3550,
      "士": 3551,
      "壬": 3552,
      "壮": 3553,
      "声": 3554,
      "壱": 3555,
      "壺": 3556,
      "壽": 3557,
      "处": 3558,
      "変": 3559,
      "夏": 3560,
      "夕": 3561,
      "外": 3562,
      "多": 3563,
      "夜": 3564,
      "夢": 3565,
      "大": 3566,
      "天": 3567,
      "太": 3568,
      "夫": 3569,
      "央": 3570,
      "失": 3571,
      "头": 3572,
      "夷": 3573,
      "夾": 3574,
      "奄": 3575,
      "奇": 3576,
      "奈": 3577,
      "奉": 3578,
      "奎": 3579,
      "契": 3580,
      "奔": 3581,
      "奕": 3582,
      "奘": 3583,
      "奚": 3584,
      "奥": 3585,
      "奨": 3586,
      "女": 3587,
      "奴": 3588,
      "奶": 3589,
      "奸": 3590,
      "好": 3591,
      "如": 3592,
      "妃": 3593,
      "妓": 3594,
      "妖": 3595,
      "妙": 3596,
      "妮": 3597,
      "妳": 3598,
      "妹": 3599,
      "姉": 3600,
      "姊": 3601,
      "始": 3602,
      "姑": 3603,
      "姓": 3604,
      "委": 3605,
      "姙": 3606,
      "姚": 3607,
      "姜": 3608,
      "姥": 3609,
      "姫": 3610,
      "姻": 3611,
      "威": 3612,
      "娃": 3613,
      "娑": 3614,
      "娘": 3615,
      "娛": 3616,
      "娜": 3617,
      "娟": 3618,
      "娥": 3619,
      "娱": 3620,
      "婆": 3621,
      "婷": 3622,
      "媒": 3623,
      "媛": 3624,
      "媧": 3625,
      "媽": 3626,
      "嫁": 3627,
      "嫌": 3628,
      "嫦": 3629,
      "嬌": 3630,
      "子": 3631,
      "孔": 3632,
      "字": 3633,
      "存": 3634,
      "孙": 3635,
      "孛": 3636,
      "孜": 3637,
      "孝": 3638,
      "孟": 3639,
      "季": 3640,
      "孤": 3641,
      "学": 3642,
      "孩": 3643,
      "孫": 3644,
      "孰": 3645,
      "學": 3646,
      "宁": 3647,
      "宅": 3648,
      "宇": 3649,
      "守": 3650,
      "安": 3651,
      "宋": 3652,
      "完": 3653,
      "宏": 3654,
      "宗": 3655,
      "官": 3656,
      "宙": 3657,
      "定": 3658,
      "宛": 3659,
      "宜": 3660,
      "宝": 3661,
      "实": 3662,
      "実": 3663,
      "客": 3664,
      "宣": 3665,
      "室": 3666,
      "宪": 3667,
      "宫": 3668,
      "宮": 3669,
      "宰": 3670,
      "宴": 3671,
      "家": 3672,
      "容": 3673,
      "宾": 3674,
      "宿": 3675,
      "寄": 3676,
      "寅": 3677,
      "密": 3678,
      "寇": 3679,
      "富": 3680,
      "寐": 3681,
      "寒": 3682,
      "寓": 3683,
      "寛": 3684,
      "察": 3685,
      "實": 3686,
      "寧": 3687,
      "寨": 3688,
      "寬": 3689,
      "寶": 3690,
      "寸": 3691,
      "寺": 3692,
      "导": 3693,
      "対": 3694,
      "寿": 3695,
      "封": 3696,
      "専": 3697,
      "射": 3698,
      "将": 3699,
      "將": 3700,
      "尉": 3701,
      "尊": 3702,
      "尋": 3703,
      "對": 3704,
      "導": 3705,
      "小": 3706,
      "少": 3707,
      "尔": 3708,
      "尕": 3709,
      "尙": 3710,
      "尚": 3711,
      "尝": 3712,
      "尤": 3713,
      "尧": 3714,
      "尭": 3715,
      "就": 3716,
      "尸": 3717,
      "尹": 3718,
      "尺": 3719,
      "尼": 3720,
      "尽": 3721,
      "尾": 3722,
      "局": 3723,
      "屁": 3724,
      "居": 3725,
      "屈": 3726,
      "屋": 3727,
      "屍": 3728,
      "展": 3729,
      "属": 3730,
      "屠": 3731,
      "履": 3732,
      "屬": 3733,
      "屯": 3734,
      "山": 3735,
      "岁": 3736,
      "岐": 3737,
      "岛": 3738,
      "岡": 3739,
      "岩": 3740,
      "岬": 3741,
      "岭": 3742,
      "岱": 3743,
      "岳": 3744,
      "岷": 3745,
      "岸": 3746,
      "峨": 3747,
      "峪": 3748,
      "峯": 3749,
      "峰": 3750,
      "島": 3751,
      "峽": 3752,
      "崂": 3753,
      "崇": 3754,
      "崎": 3755,
      "崑": 3756,
      "崔": 3757,
      "崙": 3758,
      "嵐": 3759,
      "嵩": 3760,
      "嶋": 3761,
      "嶺": 3762,
      "嶽": 3763,
      "巖": 3764,
      "川": 3765,
      "州": 3766,
      "巡": 3767,
      "巢": 3768,
      "巣": 3769,
      "工": 3770,
      "左": 3771,
      "巧": 3772,
      "巨": 3773,
      "巩": 3774,
      "巫": 3775,
      "差": 3776,
      "巴": 3777,
      "巻": 3778,
      "币": 3779,
      "市": 3780,
      "布": 3781,
      "帅": 3782,
      "师": 3783,
      "希": 3784,
      "帕": 3785,
      "帝": 3786,
      "帥": 3787,
      "師": 3788,
      "席": 3789,
      "帯": 3790,
      "帰": 3791,
      "帶": 3792,
      "常": 3793,
      "帽": 3794,
      "幌": 3795,
      "幕": 3796,
      "幣": 3797,
      "干": 3798,
      "平": 3799,
      "年": 3800,
      "幸": 3801,
      "幹": 3802,
      "幻": 3803,
      "幼": 3804,
      "幽": 3805,
      "广": 3806,
      "庁": 3807,
      "広": 3808,
      "庆": 3809,
      "序": 3810,
      "庐": 3811,
      "库": 3812,
      "底": 3813,
      "庖": 3814,
      "店": 3815,
      "庙": 3816,
      "府": 3817,
      "度": 3818,
      "座": 3819,
      "庫": 3820,
      "庭": 3821,
      "庵": 3822,
      "庶": 3823,
      "康": 3824,
      "庸": 3825,
      "廃": 3826,
      "廈": 3827,
      "廉": 3828,
      "廊": 3829,
      "廟": 3830,
      "廣": 3831,
      "廩": 3832,
      "廬": 3833,
      "廳": 3834,
      "延": 3835,
      "廷": 3836,
      "建": 3837,
      "廻": 3838,
      "廿": 3839,
      "开": 3840,
      "弁": 3841,
      "弄": 3842,
      "式": 3843,
      "弓": 3844,
      "引": 3845,
      "弗": 3846,
      "弘": 3847,
      "弟": 3848,
      "张": 3849,
      "弥": 3850,
      "弩": 3851,
      "弴": 3852,
      "張": 3853,
      "強": 3854,
      "强": 3855,
      "弼": 3856,
      "弾": 3857,
      "彌": 3858,
      "归": 3859,
      "当": 3860,
      "录": 3861,
      "形": 3862,
      "彦": 3863,
      "彩": 3864,
      "彬": 3865,
      "彭": 3866,
      "彰": 3867,
      "影": 3868,
      "役": 3869,
      "征": 3870,
      "待": 3871,
      "律": 3872,
      "後": 3873,
      "徐": 3874,
      "徒": 3875,
      "得": 3876,
      "御": 3877,
      "復": 3878,
      "循": 3879,
      "微": 3880,
      "徳": 3881,
      "德": 3882,
      "徹": 3883,
      "徽": 3884,
      "心": 3885,
      "忍": 3886,
      "志": 3887,
      "忘": 3888,
      "忙": 3889,
      "忠": 3890,
      "快": 3891,
      "念": 3892,
      "忽": 3893,
      "怒": 3894,
      "怛": 3895,
      "思": 3896,
      "怡": 3897,
      "急": 3898,
      "性": 3899,
      "怨": 3900,
      "怪": 3901,
      "总": 3902,
      "恆": 3903,
      "恋": 3904,
      "恐": 3905,
      "恒": 3906,
      "恩": 3907,
      "恭": 3908,
      "息": 3909,
      "恰": 3910,
      "恵": 3911,
      "悅": 3912,
      "悉": 3913,
      "悒": 3914,
      "悟": 3915,
      "悠": 3916,
      "患": 3917,
      "悦": 3918,
      "悪": 3919,
      "悼": 3920,
      "情": 3921,
      "惑": 3922,
      "惜": 3923,
      "惠": 3924,
      "惣": 3925,
      "想": 3926,
      "愍": 3927,
      "意": 3928,
      "愚": 3929,
      "愛": 3930,
      "感": 3931,
      "愿": 3932,
      "慈": 3933,
      "慊": 3934,
      "態": 3935,
      "慕": 3936,
      "慧": 3937,
      "慮": 3938,
      "慰": 3939,
      "慶": 3940,
      "憐": 3941,
      "憑": 3942,
      "憲": 3943,
      "憶": 3944,
      "應": 3945,
      "懐": 3946,
      "懨": 3947,
      "懷": 3948,
      "懿": 3949,
      "戀": 3950,
      "戈": 3951,
      "戍": 3952,
      "戎": 3953,
      "戏": 3954,
      "成": 3955,
      "我": 3956,
      "戔": 3957,
      "战": 3958,
      "戚": 3959,
      "戛": 3960,
      "戦": 3961,
      "截": 3962,
      "戯": 3963,
      "戰": 3964,
      "戲": 3965,
      "户": 3966,
      "戸": 3967,
      "房": 3968,
      "所": 3969,
      "扇": 3970,
      "手": 3971,
      "才": 3972,
      "扎": 3973,
      "打": 3974,
      "托": 3975,
      "扣": 3976,
      "承": 3977,
      "技": 3978,
      "抄": 3979,
      "投": 3980,
      "抗": 3981,
      "折": 3982,
      "护": 3983,
      "报": 3984,
      "抵": 3985,
      "抹": 3986,
      "拉": 3987,
      "拓": 3988,
      "拔": 3989,
      "拘": 3990,
      "拙": 3991,
      "招": 3992,
      "拜": 3993,
      "拝": 3994,
      "拟": 3995,
      "拠": 3996,
      "括": 3997,
      "拭": 3998,
      "拳": 3999,
      "拾": 4000,
      "持": 4001,
      "指": 4002,
      "挙": 4003,
      "挡": 4004,
      "振": 4005,
      "捍": 4006,
      "捕": 4007,
      "捧": 4008,
      "捷": 4009,
      "捺": 4010,
      "掃": 4011,
      "掌": 4012,
      "排": 4013,
      "掖": 4014,
      "掛": 4015,
      "探": 4016,
      "控": 4017,
      "推": 4018,
      "提": 4019,
      "揚": 4020,
      "握": 4021,
      "揭": 4022,
      "揵": 4023,
      "搖": 4024,
      "搜": 4025,
      "搞": 4026,
      "摄": 4027,
      "摇": 4028,
      "摘": 4029,
      "摩": 4030,
      "撃": 4031,
      "撒": 4032,
      "撞": 4033,
      "播": 4034,
      "撰": 4035,
      "撲": 4036,
      "擊": 4037,
      "擎": 4038,
      "攘": 4039,
      "攝": 4040,
      "攤": 4041,
      "支": 4042,
      "收": 4043,
      "改": 4044,
      "攻": 4045,
      "放": 4046,
      "政": 4047,
      "故": 4048,
      "敎": 4049,
      "敏": 4050,
      "救": 4051,
      "敕": 4052,
      "敖": 4053,
      "教": 4054,
      "散": 4055,
      "敦": 4056,
      "敬": 4057,
      "数": 4058,
      "敷": 4059,
      "文": 4060,
      "斉": 4061,
      "斌": 4062,
      "斎": 4063,
      "斐": 4064,
      "斑": 4065,
      "斗": 4066,
      "料": 4067,
      "斜": 4068,
      "斡": 4069,
      "斤": 4070,
      "斧": 4071,
      "斩": 4072,
      "斬": 4073,
      "斯": 4074,
      "新": 4075,
      "方": 4076,
      "於": 4077,
      "施": 4078,
      "旅": 4079,
      "旋": 4080,
      "族": 4081,
      "旗": 4082,
      "无": 4083,
      "日": 4084,
      "旦": 4085,
      "旧": 4086,
      "早": 4087,
      "时": 4088,
      "旺": 4089,
      "昀": 4090,
      "昆": 4091,
      "昇": 4092,
      "昊": 4093,
      "昌": 4094,
      "明": 4095,
      "易": 4096,
      "昔": 4097,
      "星": 4098,
      "映": 4099,
      "春": 4100,
      "昧": 4101,
      "昭": 4102,
      "是": 4103,
      "昱": 4104,
      "昴": 4105,
      "昺": 4106,
      "显": 4107,
      "時": 4108,
      "晃": 4109,
      "晉": 4110,
      "晋": 4111,
      "晓": 4112,
      "晖": 4113,
      "晦": 4114,
      "晩": 4115,
      "普": 4116,
      "景": 4117,
      "晴": 4118,
      "晶": 4119,
      "智": 4120,
      "暁": 4121,
      "暈": 4122,
      "暎": 4123,
      "暗": 4124,
      "暦": 4125,
      "暨": 4126,
      "暴": 4127,
      "暾": 4128,
      "曆": 4129,
      "曉": 4130,
      "曌": 4131,
      "曙": 4132,
      "曜": 4133,
      "曲": 4134,
      "曳": 4135,
      "更": 4136,
      "曷": 4137,
      "書": 4138,
      "曹": 4139,
      "曺": 4140,
      "曼": 4141,
      "曽": 4142,
      "曾": 4143,
      "最": 4144,
      "會": 4145,
      "月": 4146,
      "有": 4147,
      "朋": 4148,
      "服": 4149,
      "朐": 4150,
      "朗": 4151,
      "望": 4152,
      "朝": 4153,
      "期": 4154,
      "朧": 4155,
      "木": 4156,
      "未": 4157,
      "末": 4158,
      "本": 4159,
      "札": 4160,
      "朮": 4161,
      "朱": 4162,
      "朴": 4163,
      "朵": 4164,
      "机": 4165,
      "朽": 4166,
      "杀": 4167,
      "杂": 4168,
      "权": 4169,
      "杆": 4170,
      "杉": 4171,
      "李": 4172,
      "杏": 4173,
      "村": 4174,
      "杖": 4175,
      "杜": 4176,
      "杞": 4177,
      "条": 4178,
      "来": 4179,
      "杨": 4180,
      "杭": 4181,
      "杯": 4182,
      "杰": 4183,
      "東": 4184,
      "杵": 4185,
      "松": 4186,
      "板": 4187,
      "极": 4188,
      "枕": 4189,
      "林": 4190,
      "枚": 4191,
      "果": 4192,
      "枝": 4193,
      "枭": 4194,
      "枯": 4195,
      "架": 4196,
      "柏": 4197,
      "染": 4198,
      "柔": 4199,
      "柚": 4200,
      "查": 4201,
      "柯": 4202,
      "柱": 4203,
      "柳": 4204,
      "柴": 4205,
      "査": 4206,
      "栄": 4207,
      "树": 4208,
      "栖": 4209,
      "栗": 4210,
      "栞": 4211,
      "校": 4212,
      "株": 4213,
      "样": 4214,
      "核": 4215,
      "根": 4216,
      "格": 4217,
      "桂": 4218,
      "桃": 4219,
      "案": 4220,
      "桐": 4221,
      "桑": 4222,
      "桓": 4223,
      "桔": 4224,
      "桜": 4225,
      "桥": 4226,
      "桦": 4227,
      "桿": 4228,
      "梁": 4229,
      "梅": 4230,
      "條": 4231,
      "梦": 4232,
      "梧": 4233,
      "梨": 4234,
      "械": 4235,
      "梵": 4236,
      "梶": 4237,
      "检": 4238,
      "棋": 4239,
      "棍": 4240,
      "棒": 4241,
      "棘": 4242,
      "棠": 4243,
      "棣": 4244,
      "棧": 4245,
      "森": 4246,
      "棲": 4247,
      "棵": 4248,
      "棺": 4249,
      "植": 4250,
      "椿": 4251,
      "楊": 4252,
      "楓": 4253,
      "楚": 4254,
      "楞": 4255,
      "楠": 4256,
      "楢": 4257,
      "業": 4258,
      "極": 4259,
      "楼": 4260,
      "楽": 4261,
      "榉": 4262,
      "榊": 4263,
      "榎": 4264,
      "榜": 4265,
      "榮": 4266,
      "槇": 4267,
      "構": 4268,
      "槍": 4269,
      "槐": 4270,
      "様": 4271,
      "槻": 4272,
      "樂": 4273,
      "樋": 4274,
      "樓": 4275,
      "樘": 4276,
      "標": 4277,
      "樞": 4278,
      "模": 4279,
      "樣": 4280,
      "権": 4281,
      "横": 4282,
      "樸": 4283,
      "樹": 4284,
      "橋": 4285,
      "橘": 4286,
      "機": 4287,
      "橫": 4288,
      "檀": 4289,
      "檢": 4290,
      "櫛": 4291,
      "櫸": 4292,
      "櫻": 4293,
      "欅": 4294,
      "權": 4295,
      "欒": 4296,
      "欠": 4297,
      "次": 4298,
      "欢": 4299,
      "欣": 4300,
      "欧": 4301,
      "欲": 4302,
      "欽": 4303,
      "歌": 4304,
      "歐": 4305,
      "歓": 4306,
      "歡": 4307,
      "正": 4308,
      "步": 4309,
      "武": 4310,
      "歩": 4311,
      "歲": 4312,
      "歳": 4313,
      "歷": 4314,
      "歸": 4315,
      "死": 4316,
      "殊": 4317,
      "殘": 4318,
      "段": 4319,
      "殷": 4320,
      "殺": 4321,
      "殿": 4322,
      "毀": 4323,
      "毅": 4324,
      "母": 4325,
      "每": 4326,
      "毒": 4327,
      "比": 4328,
      "毕": 4329,
      "毗": 4330,
      "毘": 4331,
      "毛": 4332,
      "毫": 4333,
      "毬": 4334,
      "毽": 4335,
      "氏": 4336,
      "氐": 4337,
      "民": 4338,
      "气": 4339,
      "気": 4340,
      "氣": 4341,
      "水": 4342,
      "永": 4343,
      "汁": 4344,
      "求": 4345,
      "汇": 4346,
      "汉": 4347,
      "汎": 4348,
      "汗": 4349,
      "汝": 4350,
      "江": 4351,
      "池": 4352,
      "汤": 4353,
      "汪": 4354,
      "汴": 4355,
      "汶": 4356,
      "決": 4357,
      "汽": 4358,
      "沁": 4359,
      "沈": 4360,
      "沔": 4361,
      "沖": 4362,
      "沙": 4363,
      "沛": 4364,
      "沟": 4365,
      "没": 4366,
      "沢": 4367,
      "沧": 4368,
      "沪": 4369,
      "沮": 4370,
      "河": 4371,
      "油": 4372,
      "治": 4373,
      "沼": 4374,
      "泉": 4375,
      "泊": 4376,
      "泌": 4377,
      "法": 4378,
      "波": 4379,
      "泣": 4380,
      "泥": 4381,
      "注": 4382,
      "泫": 4383,
      "泰": 4384,
      "泳": 4385,
      "泽": 4386,
      "洁": 4387,
      "洋": 4388,
      "洗": 4389,
      "洙": 4390,
      "洛": 4391,
      "洞": 4392,
      "津": 4393,
      "洪": 4394,
      "洱": 4395,
      "洲": 4396,
      "活": 4397,
      "派": 4398,
      "流": 4399,
      "浄": 4400,
      "浅": 4401,
      "济": 4402,
      "浜": 4403,
      "浦": 4404,
      "浩": 4405,
      "浪": 4406,
      "浮": 4407,
      "海": 4408,
      "消": 4409,
      "涙": 4410,
      "涛": 4411,
      "涼": 4412,
      "淄": 4413,
      "淆": 4414,
      "淇": 4415,
      "淑": 4416,
      "淚": 4417,
      "淡": 4418,
      "淨": 4419,
      "淮": 4420,
      "深": 4421,
      "淳": 4422,
      "淵": 4423,
      "混": 4424,
      "淸": 4425,
      "清": 4426,
      "済": 4427,
      "渎": 4428,
      "渓": 4429,
      "渕": 4430,
      "渠": 4431,
      "渡": 4432,
      "渤": 4433,
      "渥": 4434,
      "温": 4435,
      "港": 4436,
      "游": 4437,
      "渾": 4438,
      "湊": 4439,
      "湖": 4440,
      "湘": 4441,
      "湯": 4442,
      "湾": 4443,
      "満": 4444,
      "溌": 4445,
      "源": 4446,
      "準": 4447,
      "溝": 4448,
      "溥": 4449,
      "溪": 4450,
      "溫": 4451,
      "溯": 4452,
      "滄": 4453,
      "滋": 4454,
      "滑": 4455,
      "滓": 4456,
      "滕": 4457,
      "满": 4458,
      "滨": 4459,
      "滩": 4460,
      "滿": 4461,
      "漁": 4462,
      "漂": 4463,
      "演": 4464,
      "漕": 4465,
      "漠": 4466,
      "漢": 4467,
      "漣": 4468,
      "漫": 4469,
      "漬": 4470,
      "潔": 4471,
      "潘": 4472,
      "潜": 4473,
      "潟": 4474,
      "潤": 4475,
      "潮": 4476,
      "潽": 4477,
      "澄": 4478,
      "澎": 4479,
      "澜": 4480,
      "澤": 4481,
      "澳": 4482,
      "激": 4483,
      "濕": 4484,
      "濟": 4485,
      "濠": 4486,
      "濤": 4487,
      "濬": 4488,
      "瀚": 4489,
      "瀛": 4490,
      "瀬": 4491,
      "瀷": 4492,
      "瀾": 4493,
      "灑": 4494,
      "灘": 4495,
      "灣": 4496,
      "火": 4497,
      "灭": 4498,
      "灵": 4499,
      "灸": 4500,
      "災": 4501,
      "炅": 4502,
      "炆": 4503,
      "炎": 4504,
      "炒": 4505,
      "炮": 4506,
      "炯": 4507,
      "点": 4508,
      "為": 4509,
      "炽": 4510,
      "烈": 4511,
      "烋": 4512,
      "烏": 4513,
      "烟": 4514,
      "烤": 4515,
      "烧": 4516,
      "热": 4517,
      "焉": 4518,
      "無": 4519,
      "焰": 4520,
      "然": 4521,
      "焼": 4522,
      "煉": 4523,
      "煌": 4524,
      "煕": 4525,
      "煤": 4526,
      "煥": 4527,
      "煦": 4528,
      "照": 4529,
      "煮": 4530,
      "熊": 4531,
      "熙": 4532,
      "熜": 4533,
      "熟": 4534,
      "熱": 4535,
      "熾": 4536,
      "燁": 4537,
      "燈": 4538,
      "燉": 4539,
      "燎": 4540,
      "燐": 4541,
      "燒": 4542,
      "燕": 4543,
      "營": 4544,
      "燮": 4545,
      "爆": 4546,
      "爪": 4547,
      "爭": 4548,
      "爰": 4549,
      "爱": 4550,
      "爵": 4551,
      "父": 4552,
      "爺": 4553,
      "爽": 4554,
      "爾": 4555,
      "片": 4556,
      "版": 4557,
      "牙": 4558,
      "牛": 4559,
      "牟": 4560,
      "牢": 4561,
      "牧": 4562,
      "物": 4563,
      "牲": 4564,
      "特": 4565,
      "牺": 4566,
      "犁": 4567,
      "犍": 4568,
      "犠": 4569,
      "犬": 4570,
      "犯": 4571,
      "狂": 4572,
      "狄": 4573,
      "狐": 4574,
      "狗": 4575,
      "狩": 4576,
      "独": 4577,
      "狱": 4578,
      "狸": 4579,
      "狼": 4580,
      "猗": 4581,
      "猛": 4582,
      "猟": 4583,
      "猪": 4584,
      "猫": 4585,
      "献": 4586,
      "猴": 4587,
      "猿": 4588,
      "獄": 4589,
      "獎": 4590,
      "獣": 4591,
      "獨": 4592,
      "獯": 4593,
      "獻": 4594,
      "玄": 4595,
      "率": 4596,
      "玉": 4597,
      "王": 4598,
      "玛": 4599,
      "玫": 4600,
      "现": 4601,
      "玲": 4602,
      "玷": 4603,
      "珂": 4604,
      "珊": 4605,
      "珍": 4606,
      "珑": 4607,
      "珠": 4608,
      "珥": 4609,
      "珪": 4610,
      "班": 4611,
      "現": 4612,
      "球": 4613,
      "理": 4614,
      "琉": 4615,
      "琦": 4616,
      "琪": 4617,
      "琬": 4618,
      "琰": 4619,
      "琳": 4620,
      "琴": 4621,
      "琶": 4622,
      "琼": 4623,
      "瑚": 4624,
      "瑛": 4625,
      "瑜": 4626,
      "瑞": 4627,
      "瑟": 4628,
      "瑤": 4629,
      "瑩": 4630,
      "瑪": 4631,
      "瑰": 4632,
      "璃": 4633,
      "璠": 4634,
      "環": 4635,
      "璽": 4636,
      "瓊": 4637,
      "瓜": 4638,
      "瓦": 4639,
      "瓶": 4640,
      "甕": 4641,
      "甘": 4642,
      "甚": 4643,
      "甜": 4644,
      "生": 4645,
      "產": 4646,
      "産": 4647,
      "用": 4648,
      "甫": 4649,
      "田": 4650,
      "由": 4651,
      "甲": 4652,
      "申": 4653,
      "电": 4654,
      "男": 4655,
      "甸": 4656,
      "町": 4657,
      "画": 4658,
      "界": 4659,
      "畑": 4660,
      "畖": 4661,
      "留": 4662,
      "畠": 4663,
      "畢": 4664,
      "略": 4665,
      "番": 4666,
      "畫": 4667,
      "異": 4668,
      "畵": 4669,
      "當": 4670,
      "畿": 4671,
      "疃": 4672,
      "疆": 4673,
      "疇": 4674,
      "疏": 4675,
      "疑": 4676,
      "疗": 4677,
      "疫": 4678,
      "疵": 4679,
      "疾": 4680,
      "病": 4681,
      "痒": 4682,
      "痴": 4683,
      "瘋": 4684,
      "発": 4685,
      "登": 4686,
      "發": 4687,
      "白": 4688,
      "百": 4689,
      "的": 4690,
      "皇": 4691,
      "皋": 4692,
      "皮": 4693,
      "皿": 4694,
      "盆": 4695,
      "益": 4696,
      "盐": 4697,
      "盖": 4698,
      "盛": 4699,
      "盜": 4700,
      "盟": 4701,
      "監": 4702,
      "盤": 4703,
      "盧": 4704,
      "目": 4705,
      "直": 4706,
      "相": 4707,
      "盾": 4708,
      "省": 4709,
      "眉": 4710,
      "県": 4711,
      "眘": 4712,
      "眞": 4713,
      "真": 4714,
      "眠": 4715,
      "眷": 4716,
      "眼": 4717,
      "着": 4718,
      "睒": 4719,
      "督": 4720,
      "睦": 4721,
      "瞳": 4722,
      "瞻": 4723,
      "矛": 4724,
      "知": 4725,
      "矩": 4726,
      "短": 4727,
      "石": 4728,
      "矿": 4729,
      "砂": 4730,
      "研": 4731,
      "砲": 4732,
      "破": 4733,
      "硅": 4734,
      "硕": 4735,
      "硫": 4736,
      "碁": 4737,
      "碇": 4738,
      "碎": 4739,
      "碑": 4740,
      "碓": 4741,
      "碣": 4742,
      "碩": 4743,
      "碱": 4744,
      "碾": 4745,
      "磊": 4746,
      "磐": 4747,
      "磨": 4748,
      "磯": 4749,
      "礁": 4750,
      "礦": 4751,
      "示": 4752,
      "礼": 4753,
      "社": 4754,
      "祁": 4755,
      "祈": 4756,
      "祐": 4757,
      "祓": 4758,
      "祖": 4759,
      "祜": 4760,
      "祝": 4761,
      "神": 4762,
      "祥": 4763,
      "祭": 4764,
      "祿": 4765,
      "禁": 4766,
      "禄": 4767,
      "禅": 4768,
      "禎": 4769,
      "福": 4770,
      "禛": 4771,
      "禥": 4772,
      "禦": 4773,
      "禧": 4774,
      "禪": 4775,
      "禮": 4776,
      "禱": 4777,
      "禹": 4778,
      "禺": 4779,
      "禾": 4780,
      "秀": 4781,
      "私": 4782,
      "秋": 4783,
      "种": 4784,
      "科": 4785,
      "秦": 4786,
      "称": 4787,
      "程": 4788,
      "稚": 4789,
      "種": 4790,
      "稱": 4791,
      "稲": 4792,
      "稽": 4793,
      "稿": 4794,
      "穂": 4795,
      "穆": 4796,
      "穌": 4797,
      "積": 4798,
      "穢": 4799,
      "穴": 4800,
      "究": 4801,
      "穹": 4802,
      "空": 4803,
      "突": 4804,
      "窓": 4805,
      "窟": 4806,
      "窮": 4807,
      "立": 4808,
      "站": 4809,
      "竜": 4810,
      "竟": 4811,
      "章": 4812,
      "童": 4813,
      "端": 4814,
      "競": 4815,
      "竹": 4816,
      "笃": 4817,
      "笑": 4818,
      "笔": 4819,
      "笛": 4820,
      "笠": 4821,
      "第": 4822,
      "笹": 4823,
      "筆": 4824,
      "等": 4825,
      "筋": 4826,
      "筑": 4827,
      "策": 4828,
      "简": 4829,
      "箋": 4830,
      "箍": 4831,
      "箏": 4832,
      "箕": 4833,
      "算": 4834,
      "管": 4835,
      "箭": 4836,
      "箱": 4837,
      "箸": 4838,
      "節": 4839,
      "範": 4840,
      "篇": 4841,
      "篠": 4842,
      "篤": 4843,
      "篭": 4844,
      "簡": 4845,
      "簪": 4846,
      "簿": 4847,
      "籍": 4848,
      "米": 4849,
      "粉": 4850,
      "粋": 4851,
      "粛": 4852,
      "粟": 4853,
      "粤": 4854,
      "粮": 4855,
      "粵": 4856,
      "精": 4857,
      "糸": 4858,
      "系": 4859,
      "紀": 4860,
      "約": 4861,
      "紅": 4862,
      "紇": 4863,
      "紋": 4864,
      "納": 4865,
      "純": 4866,
      "紗": 4867,
      "紘": 4868,
      "紙": 4869,
      "級": 4870,
      "素": 4871,
      "索": 4872,
      "紫": 4873,
      "紮": 4874,
      "累": 4875,
      "細": 4876,
      "紳": 4877,
      "紺": 4878,
      "終": 4879,
      "組": 4880,
      "経": 4881,
      "結": 4882,
      "給": 4883,
      "統": 4884,
      "絵": 4885,
      "絶": 4886,
      "綏": 4887,
      "經": 4888,
      "継": 4889,
      "綠": 4890,
      "維": 4891,
      "綱": 4892,
      "綾": 4893,
      "綿": 4894,
      "緋": 4895,
      "総": 4896,
      "緑": 4897,
      "緒": 4898,
      "線": 4899,
      "緣": 4900,
      "編": 4901,
      "緯": 4902,
      "緹": 4903,
      "縄": 4904,
      "縣": 4905,
      "總": 4906,
      "織": 4907,
      "繭": 4908,
      "繼": 4909,
      "红": 4910,
      "纥": 4911,
      "约": 4912,
      "级": 4913,
      "纪": 4914,
      "纯": 4915,
      "纲": 4916,
      "纳": 4917,
      "线": 4918,
      "组": 4919,
      "经": 4920,
      "绒": 4921,
      "结": 4922,
      "绛": 4923,
      "统": 4924,
      "继": 4925,
      "维": 4926,
      "绸": 4927,
      "综": 4928,
      "缽": 4929,
      "网": 4930,
      "罕": 4931,
      "罗": 4932,
      "罘": 4933,
      "罪": 4934,
      "置": 4935,
      "罵": 4936,
      "羅": 4937,
      "羊": 4938,
      "羌": 4939,
      "美": 4940,
      "群": 4941,
      "義": 4942,
      "羯": 4943,
      "羲": 4944,
      "羽": 4945,
      "羿": 4946,
      "翁": 4947,
      "翊": 4948,
      "習": 4949,
      "翔": 4950,
      "翟": 4951,
      "翠": 4952,
      "翦": 4953,
      "翰": 4954,
      "翼": 4955,
      "老": 4956,
      "考": 4957,
      "者": 4958,
      "耆": 4959,
      "而": 4960,
      "耐": 4961,
      "耕": 4962,
      "耳": 4963,
      "耶": 4964,
      "耿": 4965,
      "联": 4966,
      "聖": 4967,
      "聞": 4968,
      "聯": 4969,
      "聰": 4970,
      "聲": 4971,
      "聶": 4972,
      "聿": 4973,
      "肃": 4974,
      "肅": 4975,
      "肆": 4976,
      "肉": 4977,
      "肖": 4978,
      "肘": 4979,
      "肝": 4980,
      "股": 4981,
      "肥": 4982,
      "育": 4983,
      "背": 4984,
      "胜": 4985,
      "胞": 4986,
      "胡": 4987,
      "胤": 4988,
      "胭": 4989,
      "胯": 4990,
      "胸": 4991,
      "能": 4992,
      "脂": 4993,
      "脇": 4994,
      "脈": 4995,
      "脉": 4996,
      "脑": 4997,
      "脚": 4998,
      "脩": 4999,
      "脫": 5000,
      "脳": 5001,
      "腐": 5002,
      "腕": 5003,
      "腥": 5004,
      "腦": 5005,
      "腹": 5006,
      "腾": 5007,
      "膝": 5008,
      "膳": 5009,
      "膽": 5010,
      "臂": 5011,
      "臣": 5012,
      "臥": 5013,
      "臨": 5014,
      "自": 5015,
      "至": 5016,
      "致": 5017,
      "臺": 5018,
      "臼": 5019,
      "舆": 5020,
      "與": 5021,
      "興": 5022,
      "舉": 5023,
      "舊": 5024,
      "舍": 5025,
      "舎": 5026,
      "舒": 5027,
      "舜": 5028,
      "舞": 5029,
      "舟": 5030,
      "航": 5031,
      "般": 5032,
      "舰": 5033,
      "舱": 5034,
      "船": 5035,
      "艤": 5036,
      "艦": 5037,
      "艮": 5038,
      "良": 5039,
      "色": 5040,
      "艷": 5041,
      "艾": 5042,
      "节": 5043,
      "芙": 5044,
      "芝": 5045,
      "芥": 5046,
      "芦": 5047,
      "芬": 5048,
      "芭": 5049,
      "芮": 5050,
      "花": 5051,
      "芳": 5052,
      "芸": 5053,
      "芹": 5054,
      "芻": 5055,
      "芽": 5056,
      "苏": 5057,
      "若": 5058,
      "苦": 5059,
      "苯": 5060,
      "英": 5061,
      "苹": 5062,
      "苺": 5063,
      "苻": 5064,
      "苾": 5065,
      "茂": 5066,
      "范": 5067,
      "茜": 5068,
      "茱": 5069,
      "茶": 5070,
      "茹": 5071,
      "草": 5072,
      "荊": 5073,
      "荒": 5074,
      "荔": 5075,
      "荣": 5076,
      "药": 5077,
      "荷": 5078,
      "莊": 5079,
      "莎": 5080,
      "莫": 5081,
      "莱": 5082,
      "菊": 5083,
      "菌": 5084,
      "菏": 5085,
      "菓": 5086,
      "菖": 5087,
      "菜": 5088,
      "菩": 5089,
      "華": 5090,
      "菱": 5091,
      "菲": 5092,
      "营": 5093,
      "萨": 5094,
      "萩": 5095,
      "萬": 5096,
      "萸": 5097,
      "落": 5098,
      "葅": 5099,
      "葆": 5100,
      "葉": 5101,
      "著": 5102,
      "葛": 5103,
      "董": 5104,
      "葵": 5105,
      "蒋": 5106,
      "蒙": 5107,
      "蒲": 5108,
      "蒸": 5109,
      "蒼": 5110,
      "蓉": 5111,
      "蓋": 5112,
      "蓝": 5113,
      "蓬": 5114,
      "蓮": 5115,
      "蓼": 5116,
      "蔘": 5117,
      "蔚": 5118,
      "蔡": 5119,
      "蔣": 5120,
      "蔭": 5121,
      "蔵": 5122,
      "蕃": 5123,
      "蕉": 5124,
      "蕙": 5125,
      "蕨": 5126,
      "蕭": 5127,
      "蕴": 5128,
      "薇": 5129,
      "薑": 5130,
      "薙": 5131,
      "薛": 5132,
      "薩": 5133,
      "薫": 5134,
      "藍": 5135,
      "藏": 5136,
      "藝": 5137,
      "藤": 5138,
      "藥": 5139,
      "藩": 5140,
      "藻": 5141,
      "蘇": 5142,
      "蘊": 5143,
      "蘭": 5144,
      "虎": 5145,
      "虐": 5146,
      "處": 5147,
      "虚": 5148,
      "虛": 5149,
      "虞": 5150,
      "號": 5151,
      "虫": 5152,
      "虹": 5153,
      "蚊": 5154,
      "蛇": 5155,
      "蛋": 5156,
      "蛍": 5157,
      "蛟": 5158,
      "蛭": 5159,
      "蛮": 5160,
      "蛯": 5161,
      "蜂": 5162,
      "蜜": 5163,
      "蝚": 5164,
      "蝦": 5165,
      "蝶": 5166,
      "螂": 5167,
      "融": 5168,
      "螢": 5169,
      "螳": 5170,
      "蟠": 5171,
      "蟲": 5172,
      "蟹": 5173,
      "蠕": 5174,
      "蠻": 5175,
      "血": 5176,
      "衆": 5177,
      "行": 5178,
      "衍": 5179,
      "術": 5180,
      "街": 5181,
      "衛": 5182,
      "衡": 5183,
      "衢": 5184,
      "表": 5185,
      "衮": 5186,
      "衿": 5187,
      "袁": 5188,
      "袈": 5189,
      "袋": 5190,
      "被": 5191,
      "袱": 5192,
      "裁": 5193,
      "裂": 5194,
      "装": 5195,
      "裏": 5196,
      "裔": 5197,
      "裕": 5198,
      "補": 5199,
      "裝": 5200,
      "裸": 5201,
      "製": 5202,
      "褌": 5203,
      "褘": 5204,
      "襄": 5205,
      "襟": 5206,
      "襲": 5207,
      "西": 5208,
      "要": 5209,
      "覇": 5210,
      "見": 5211,
      "親": 5212,
      "観": 5213,
      "覺": 5214,
      "觀": 5215,
      "视": 5216,
      "觉": 5217,
      "角": 5218,
      "解": 5219,
      "言": 5220,
      "計": 5221,
      "訊": 5222,
      "討": 5223,
      "訓": 5224,
      "記": 5225,
      "訪": 5226,
      "設": 5227,
      "許": 5228,
      "訴": 5229,
      "訶": 5230,
      "訾": 5231,
      "評": 5232,
      "詝": 5233,
      "詞": 5234,
      "詠": 5235,
      "詢": 5236,
      "試": 5237,
      "詩": 5238,
      "詰": 5239,
      "話": 5240,
      "詳": 5241,
      "誓": 5242,
      "誕": 5243,
      "誘": 5244,
      "語": 5245,
      "誠": 5246,
      "誡": 5247,
      "誤": 5248,
      "説": 5249,
      "読": 5250,
      "誰": 5251,
      "誼": 5252,
      "調": 5253,
      "談": 5254,
      "諏": 5255,
      "論": 5256,
      "諝": 5257,
      "諦": 5258,
      "諧": 5259,
      "諫": 5260,
      "諮": 5261,
      "諱": 5262,
      "諸": 5263,
      "諾": 5264,
      "謀": 5265,
      "謙": 5266,
      "講": 5267,
      "謝": 5268,
      "謹": 5269,
      "謾": 5270,
      "識": 5271,
      "譚": 5272,
      "譜": 5273,
      "警": 5274,
      "譯": 5275,
      "議": 5276,
      "譲": 5277,
      "護": 5278,
      "譽": 5279,
      "讀": 5280,
      "讃": 5281,
      "變": 5282,
      "讐": 5283,
      "讓": 5284,
      "议": 5285,
      "记": 5286,
      "许": 5287,
      "论": 5288,
      "设": 5289,
      "识": 5290,
      "话": 5291,
      "语": 5292,
      "诺": 5293,
      "谷": 5294,
      "豆": 5295,
      "豊": 5296,
      "豐": 5297,
      "豚": 5298,
      "象": 5299,
      "豪": 5300,
      "豫": 5301,
      "豹": 5302,
      "貓": 5303,
      "貝": 5304,
      "貞": 5305,
      "財": 5306,
      "貢": 5307,
      "貨": 5308,
      "貫": 5309,
      "貴": 5310,
      "貿": 5311,
      "賀": 5312,
      "資": 5313,
      "賛": 5314,
      "賞": 5315,
      "賢": 5316,
      "賣": 5317,
      "質": 5318,
      "賴": 5319,
      "賽": 5320,
      "贊": 5321,
      "贛": 5322,
      "贝": 5323,
      "贞": 5324,
      "贤": 5325,
      "货": 5326,
      "质": 5327,
      "贴": 5328,
      "贵": 5329,
      "贺": 5330,
      "贻": 5331,
      "资": 5332,
      "赐": 5333,
      "赖": 5334,
      "赛": 5335,
      "赞": 5336,
      "赤": 5337,
      "赫": 5338,
      "赭": 5339,
      "走": 5340,
      "赳": 5341,
      "赵": 5342,
      "起": 5343,
      "超": 5344,
      "越": 5345,
      "趙": 5346,
      "足": 5347,
      "趾": 5348,
      "跋": 5349,
      "跌": 5350,
      "跖": 5351,
      "距": 5352,
      "跡": 5353,
      "跨": 5354,
      "跪": 5355,
      "路": 5356,
      "跳": 5357,
      "踊": 5358,
      "蹄": 5359,
      "蹈": 5360,
      "蹟": 5361,
      "身": 5362,
      "車": 5363,
      "軌": 5364,
      "軍": 5365,
      "軒": 5366,
      "転": 5367,
      "軽": 5368,
      "軾": 5369,
      "載": 5370,
      "輔": 5371,
      "輝": 5372,
      "輩": 5373,
      "輪": 5374,
      "輿": 5375,
      "轄": 5376,
      "轉": 5377,
      "车": 5378,
      "轨": 5379,
      "轫": 5380,
      "轮": 5381,
      "轴": 5382,
      "辈": 5383,
      "辉": 5384,
      "辖": 5385,
      "辛": 5386,
      "辣": 5387,
      "辦": 5388,
      "辭": 5389,
      "辰": 5390,
      "農": 5391,
      "边": 5392,
      "辺": 5393,
      "辻": 5394,
      "辽": 5395,
      "达": 5396,
      "迁": 5397,
      "迅": 5398,
      "过": 5399,
      "迎": 5400,
      "运": 5401,
      "近": 5402,
      "返": 5403,
      "还": 5404,
      "进": 5405,
      "远": 5406,
      "连": 5407,
      "迦": 5408,
      "迪": 5409,
      "迷": 5410,
      "迹": 5411,
      "追": 5412,
      "送": 5413,
      "适": 5414,
      "逆": 5415,
      "逊": 5416,
      "透": 5417,
      "逐": 5418,
      "递": 5419,
      "通": 5420,
      "速": 5421,
      "造": 5422,
      "逢": 5423,
      "連": 5424,
      "逮": 5425,
      "週": 5426,
      "進": 5427,
      "逸": 5428,
      "逻": 5429,
      "遇": 5430,
      "遊": 5431,
      "運": 5432,
      "過": 5433,
      "道": 5434,
      "達": 5435,
      "遗": 5436,
      "遜": 5437,
      "遠": 5438,
      "遣": 5439,
      "適": 5440,
      "遭": 5441,
      "遮": 5442,
      "遷": 5443,
      "選": 5444,
      "遺": 5445,
      "遼": 5446,
      "邀": 5447,
      "邈": 5448,
      "邊": 5449,
      "邏": 5450,
      "邑": 5451,
      "邢": 5452,
      "那": 5453,
      "邦": 5454,
      "邪": 5455,
      "邱": 5456,
      "邵": 5457,
      "邸": 5458,
      "郁": 5459,
      "郅": 5460,
      "郎": 5461,
      "郑": 5462,
      "郞": 5463,
      "郡": 5464,
      "部": 5465,
      "郭": 5466,
      "郷": 5467,
      "都": 5468,
      "鄂": 5469,
      "鄉": 5470,
      "鄒": 5471,
      "鄧": 5472,
      "鄭": 5473,
      "鄯": 5474,
      "鄰": 5475,
      "鄱": 5476,
      "酌": 5477,
      "配": 5478,
      "酒": 5479,
      "酢": 5480,
      "酸": 5481,
      "醉": 5482,
      "醋": 5483,
      "醍": 5484,
      "醐": 5485,
      "醢": 5486,
      "醫": 5487,
      "醸": 5488,
      "釈": 5489,
      "里": 5490,
      "重": 5491,
      "野": 5492,
      "量": 5493,
      "金": 5494,
      "針": 5495,
      "釵": 5496,
      "鈴": 5497,
      "鈺": 5498,
      "鉄": 5499,
      "鉅": 5500,
      "鉉": 5501,
      "鉢": 5502,
      "鉤": 5503,
      "銀": 5504,
      "銃": 5505,
      "銅": 5506,
      "銑": 5507,
      "銘": 5508,
      "銳": 5509,
      "鋼": 5510,
      "錄": 5511,
      "錛": 5512,
      "錢": 5513,
      "錦": 5514,
      "錨": 5515,
      "錫": 5516,
      "錬": 5517,
      "錯": 5518,
      "録": 5519,
      "鍋": 5520,
      "鍔": 5521,
      "鍾": 5522,
      "鎌": 5523,
      "鎬": 5524,
      "鎭": 5525,
      "鎮": 5526,
      "鏞": 5527,
      "鏡": 5528,
      "鐘": 5529,
      "鐵": 5530,
      "鑊": 5531,
      "鑑": 5532,
      "鑣": 5533,
      "鑴": 5534,
      "钜": 5535,
      "钟": 5536,
      "钦": 5537,
      "钱": 5538,
      "钵": 5539,
      "铁": 5540,
      "错": 5541,
      "锡": 5542,
      "锦": 5543,
      "锵": 5544,
      "镇": 5545,
      "镛": 5546,
      "長": 5547,
      "长": 5548,
      "門": 5549,
      "閃": 5550,
      "開": 5551,
      "閏": 5552,
      "間": 5553,
      "関": 5554,
      "閣": 5555,
      "閤": 5556,
      "閥": 5557,
      "閩": 5558,
      "閭": 5559,
      "闇": 5560,
      "闐": 5561,
      "闕": 5562,
      "關": 5563,
      "闞": 5564,
      "门": 5565,
      "问": 5566,
      "间": 5567,
      "闻": 5568,
      "闽": 5569,
      "闾": 5570,
      "阁": 5571,
      "阔": 5572,
      "阗": 5573,
      "阙": 5574,
      "阜": 5575,
      "队": 5576,
      "阪": 5577,
      "阮": 5578,
      "防": 5579,
      "阳": 5580,
      "阴": 5581,
      "阿": 5582,
      "陀": 5583,
      "附": 5584,
      "际": 5585,
      "陆": 5586,
      "陈": 5587,
      "降": 5588,
      "限": 5589,
      "陛": 5590,
      "院": 5591,
      "陣": 5592,
      "除": 5593,
      "陪": 5594,
      "陰": 5595,
      "陳": 5596,
      "陵": 5597,
      "陶": 5598,
      "陸": 5599,
      "険": 5600,
      "陽": 5601,
      "隅": 5602,
      "隆": 5603,
      "隈": 5604,
      "隊": 5605,
      "隋": 5606,
      "階": 5607,
      "随": 5608,
      "際": 5609,
      "隞": 5610,
      "隠": 5611,
      "隧": 5612,
      "險": 5613,
      "隱": 5614,
      "隸": 5615,
      "雀": 5616,
      "雁": 5617,
      "雄": 5618,
      "雅": 5619,
      "集": 5620,
      "雍": 5621,
      "雑": 5622,
      "雙": 5623,
      "雛": 5624,
      "雜": 5625,
      "雞": 5626,
      "離": 5627,
      "難": 5628,
      "雨": 5629,
      "雪": 5630,
      "雲": 5631,
      "零": 5632,
      "雷": 5633,
      "電": 5634,
      "震": 5635,
      "霉": 5636,
      "霊": 5637,
      "霍": 5638,
      "霏": 5639,
      "霑": 5640,
      "霞": 5641,
      "霧": 5642,
      "露": 5643,
      "霸": 5644,
      "靈": 5645,
      "靑": 5646,
      "青": 5647,
      "靖": 5648,
      "静": 5649,
      "靜": 5650,
      "非": 5651,
      "面": 5652,
      "革": 5653,
      "靼": 5654,
      "鞍": 5655,
      "鞏": 5656,
      "鞑": 5657,
      "鞘": 5658,
      "鞬": 5659,
      "鞮": 5660,
      "韃": 5661,
      "韋": 5662,
      "韓": 5663,
      "韦": 5664,
      "韩": 5665,
      "韬": 5666,
      "音": 5667,
      "韶": 5668,
      "頁": 5669,
      "項": 5670,
      "順": 5671,
      "須": 5672,
      "頊": 5673,
      "頓": 5674,
      "頡": 5675,
      "頤": 5676,
      "頫": 5677,
      "頭": 5678,
      "頼": 5679,
      "題": 5680,
      "額": 5681,
      "顏": 5682,
      "顒": 5683,
      "顕": 5684,
      "類": 5685,
      "顯": 5686,
      "顶": 5687,
      "项": 5688,
      "顺": 5689,
      "领": 5690,
      "颉": 5691,
      "频": 5692,
      "额": 5693,
      "風": 5694,
      "风": 5695,
      "飛": 5696,
      "飞": 5697,
      "食": 5698,
      "飯": 5699,
      "飲": 5700,
      "飼": 5701,
      "飾": 5702,
      "餅": 5703,
      "養": 5704,
      "餐": 5705,
      "館": 5706,
      "饅": 5707,
      "饢": 5708,
      "饨": 5709,
      "饮": 5710,
      "馄": 5711,
      "馆": 5712,
      "馍": 5713,
      "馕": 5714,
      "首": 5715,
      "香": 5716,
      "馨": 5717,
      "馬": 5718,
      "馮": 5719,
      "駄": 5720,
      "駒": 5721,
      "駿": 5722,
      "騎": 5723,
      "騨": 5724,
      "騫": 5725,
      "騰": 5726,
      "驅": 5727,
      "驗": 5728,
      "马": 5729,
      "驻": 5730,
      "验": 5731,
      "骑": 5732,
      "骨": 5733,
      "體": 5734,
      "高": 5735,
      "髙": 5736,
      "鬪": 5737,
      "鬱": 5738,
      "鬲": 5739,
      "鬻": 5740,
      "鬼": 5741,
      "魂": 5742,
      "魄": 5743,
      "魍": 5744,
      "魎": 5745,
      "魏": 5746,
      "魔": 5747,
      "魚": 5748,
      "魯": 5749,
      "鮎": 5750,
      "鮓": 5751,
      "鮨": 5752,
      "鮮": 5753,
      "鯉": 5754,
      "鯤": 5755,
      "鯰": 5756,
      "鰯": 5757,
      "鱀": 5758,
      "鲁": 5759,
      "鲜": 5760,
      "鳄": 5761,
      "鳥": 5762,
      "鳩": 5763,
      "鳳": 5764,
      "鳴": 5765,
      "鴉": 5766,
      "鴎": 5767,
      "鴨": 5768,
      "鵬": 5769,
      "鶏": 5770,
      "鶚": 5771,
      "鶯": 5772,
      "鶴": 5773,
      "鶻": 5774,
      "鷄": 5775,
      "鷗": 5776,
      "鷲": 5777,
      "鷹": 5778,
      "鸣": 5779,
      "鸿": 5780,
      "鹘": 5781,
      "鹰": 5782,
      "鹿": 5783,
      "麓": 5784,
      "麗": 5785,
      "麟": 5786,
      "麥": 5787,
      "麦": 5788,
      "麴": 5789,
      "麵": 5790,
      "麹": 5791,
      "麻": 5792,
      "黃": 5793,
      "黄": 5794,
      "黎": 5795,
      "黑": 5796,
      "黒": 5797,
      "默": 5798,
      "黛": 5799,
      "點": 5800,
      "黠": 5801,
      "黨": 5802,
      "鼎": 5803,
      "鼓": 5804,
      "鼠": 5805,
      "鼴": 5806,
      "齊": 5807,
      "齋": 5808,
      "齐": 5809,
      "齡": 5810,
      "龄": 5811,
      "龍": 5812,
      "龐": 5813,
      "龙": 5814,
      "龜": 5815,
      "ꅉ": 5816,
      "ꆃ": 5817,
      "ꆈ": 5818,
      "ꊨ": 5819,
      "ꌠ": 5820,
      "ꍏ": 5821,
      "ꎭ": 5822,
      "ꏦ": 5823,
      "ꏱ": 5824,
      "ꙑ": 5825,
      "ꜣ": 5826,
      "ꜥ": 5827,
      "Ꞑ": 5828,
      "ꞑ": 5829,
      "Ɦ": 5830,
      "Ɡ": 5831,
      "ꟼ": 5832,
      "ꠈ": 5833,
      "ꠔ": 5834,
      "ꠘ": 5835,
      "ꠣ": 5836,
      "ꠥ": 5837,
      "ꨂ": 5838,
      "ꨌ": 5839,
      "ꨛ": 5840,
      "ꨣ": 5841,
      "ꨩ": 5842,
      "ꩃ": 5843,
      "ꩌ": 5844,
      "가": 5845,
      "각": 5846,
      "간": 5847,
      "갈": 5848,
      "감": 5849,
      "갑": 5850,
      "강": 5851,
      "같": 5852,
      "개": 5853,
      "객": 5854,
      "거": 5855,
      "건": 5856,
      "걷": 5857,
      "걸": 5858,
      "검": 5859,
      "것": 5860,
      "게": 5861,
      "겠": 5862,
      "겨": 5863,
      "격": 5864,
      "견": 5865,
      "결": 5866,
      "경": 5867,
      "계": 5868,
      "고": 5869,
      "곡": 5870,
      "곤": 5871,
      "골": 5872,
      "곰": 5873,
      "곱": 5874,
      "곳": 5875,
      "공": 5876,
      "과": 5877,
      "곽": 5878,
      "관": 5879,
      "괄": 5880,
      "광": 5881,
      "괘": 5882,
      "괴": 5883,
      "교": 5884,
      "구": 5885,
      "국": 5886,
      "군": 5887,
      "굳": 5888,
      "굿": 5889,
      "궁": 5890,
      "권": 5891,
      "궤": 5892,
      "귀": 5893,
      "규": 5894,
      "균": 5895,
      "그": 5896,
      "극": 5897,
      "근": 5898,
      "글": 5899,
      "금": 5900,
      "급": 5901,
      "기": 5902,
      "긴": 5903,
      "길": 5904,
      "김": 5905,
      "까": 5906,
      "깻": 5907,
      "꼬": 5908,
      "꼭": 5909,
      "꼰": 5910,
      "꼼": 5911,
      "꽃": 5912,
      "꽐": 5913,
      "꿀": 5914,
      "끔": 5915,
      "끝": 5916,
      "끼": 5917,
      "나": 5918,
      "낙": 5919,
      "난": 5920,
      "날": 5921,
      "남": 5922,
      "낮": 5923,
      "낯": 5924,
      "내": 5925,
      "냄": 5926,
      "냉": 5927,
      "냥": 5928,
      "너": 5929,
      "넌": 5930,
      "널": 5931,
      "넘": 5932,
      "네": 5933,
      "녀": 5934,
      "년": 5935,
      "념": 5936,
      "녕": 5937,
      "노": 5938,
      "녹": 5939,
      "논": 5940,
      "놀": 5941,
      "놈": 5942,
      "농": 5943,
      "누": 5944,
      "눈": 5945,
      "뉴": 5946,
      "느": 5947,
      "늑": 5948,
      "는": 5949,
      "늘": 5950,
      "니": 5951,
      "닉": 5952,
      "님": 5953,
      "닝": 5954,
      "다": 5955,
      "닥": 5956,
      "단": 5957,
      "달": 5958,
      "담": 5959,
      "당": 5960,
      "대": 5961,
      "댄": 5962,
      "더": 5963,
      "덕": 5964,
      "던": 5965,
      "덤": 5966,
      "데": 5967,
      "덴": 5968,
      "델": 5969,
      "도": 5970,
      "독": 5971,
      "돌": 5972,
      "동": 5973,
      "된": 5974,
      "두": 5975,
      "둑": 5976,
      "둘": 5977,
      "둥": 5978,
      "듀": 5979,
      "드": 5980,
      "든": 5981,
      "들": 5982,
      "등": 5983,
      "디": 5984,
      "딕": 5985,
      "따": 5986,
      "땀": 5987,
      "때": 5988,
      "떠": 5989,
      "떡": 5990,
      "떴": 5991,
      "또": 5992,
      "뜨": 5993,
      "라": 5994,
      "란": 5995,
      "람": 5996,
      "랍": 5997,
      "랏": 5998,
      "랑": 5999,
      "래": 6000,
      "랙": 6001,
      "랜": 6002,
      "랩": 6003,
      "랭": 6004,
      "략": 6005,
      "량": 6006,
      "러": 6007,
      "런": 6008,
      "럼": 6009,
      "렁": 6010,
      "레": 6011,
      "렉": 6012,
      "렌": 6013,
      "렐": 6014,
      "려": 6015,
      "력": 6016,
      "련": 6017,
      "렸": 6018,
      "령": 6019,
      "례": 6020,
      "로": 6021,
      "록": 6022,
      "론": 6023,
      "롭": 6024,
      "롯": 6025,
      "료": 6026,
      "룡": 6027,
      "루": 6028,
      "룹": 6029,
      "류": 6030,
      "륙": 6031,
      "륜": 6032,
      "률": 6033,
      "르": 6034,
      "른": 6035,
      "를": 6036,
      "름": 6037,
      "릅": 6038,
      "릉": 6039,
      "리": 6040,
      "릭": 6041,
      "린": 6042,
      "릴": 6043,
      "림": 6044,
      "립": 6045,
      "릿": 6046,
      "마": 6047,
      "막": 6048,
      "만": 6049,
      "말": 6050,
      "맑": 6051,
      "망": 6052,
      "맞": 6053,
      "매": 6054,
      "맥": 6055,
      "맨": 6056,
      "맵": 6057,
      "맹": 6058,
      "머": 6059,
      "먹": 6060,
      "먼": 6061,
      "멈": 6062,
      "메": 6063,
      "멜": 6064,
      "면": 6065,
      "명": 6066,
      "모": 6067,
      "목": 6068,
      "몬": 6069,
      "몰": 6070,
      "몸": 6071,
      "못": 6072,
      "몽": 6073,
      "무": 6074,
      "묵": 6075,
      "문": 6076,
      "물": 6077,
      "뭐": 6078,
      "뮌": 6079,
      "뮤": 6080,
      "미": 6081,
      "민": 6082,
      "믿": 6083,
      "밀": 6084,
      "밉": 6085,
      "및": 6086,
      "바": 6087,
      "박": 6088,
      "반": 6089,
      "발": 6090,
      "밤": 6091,
      "밥": 6092,
      "방": 6093,
      "배": 6094,
      "백": 6095,
      "밴": 6096,
      "뱅": 6097,
      "버": 6098,
      "번": 6099,
      "벌": 6100,
      "범": 6101,
      "법": 6102,
      "베": 6103,
      "벨": 6104,
      "벳": 6105,
      "벼": 6106,
      "변": 6107,
      "별": 6108,
      "병": 6109,
      "보": 6110,
      "복": 6111,
      "볶": 6112,
      "본": 6113,
      "볼": 6114,
      "봄": 6115,
      "봉": 6116,
      "봐": 6117,
      "부": 6118,
      "북": 6119,
      "분": 6120,
      "불": 6121,
      "붉": 6122,
      "붐": 6123,
      "브": 6124,
      "븐": 6125,
      "블": 6126,
      "비": 6127,
      "빅": 6128,
      "빈": 6129,
      "빔": 6130,
      "빗": 6131,
      "빛": 6132,
      "빠": 6133,
      "빨": 6134,
      "빵": 6135,
      "빼": 6136,
      "뻐": 6137,
      "뿐": 6138,
      "쁜": 6139,
      "삐": 6140,
      "사": 6141,
      "삭": 6142,
      "산": 6143,
      "살": 6144,
      "삼": 6145,
      "상": 6146,
      "새": 6147,
      "색": 6148,
      "생": 6149,
      "샤": 6150,
      "샵": 6151,
      "서": 6152,
      "석": 6153,
      "선": 6154,
      "설": 6155,
      "섬": 6156,
      "섭": 6157,
      "성": 6158,
      "세": 6159,
      "센": 6160,
      "셔": 6161,
      "션": 6162,
      "셨": 6163,
      "소": 6164,
      "속": 6165,
      "손": 6166,
      "솔": 6167,
      "솜": 6168,
      "솟": 6169,
      "송": 6170,
      "쇠": 6171,
      "쇼": 6172,
      "수": 6173,
      "숙": 6174,
      "순": 6175,
      "술": 6176,
      "숨": 6177,
      "쉬": 6178,
      "쉽": 6179,
      "슈": 6180,
      "스": 6181,
      "슨": 6182,
      "슬": 6183,
      "슴": 6184,
      "습": 6185,
      "승": 6186,
      "시": 6187,
      "식": 6188,
      "신": 6189,
      "실": 6190,
      "심": 6191,
      "십": 6192,
      "싱": 6193,
      "싶": 6194,
      "싸": 6195,
      "싼": 6196,
      "쌀": 6197,
      "쌍": 6198,
      "쌰": 6199,
      "써": 6200,
      "썸": 6201,
      "쎈": 6202,
      "쏘": 6203,
      "쑤": 6204,
      "쓰": 6205,
      "쓴": 6206,
      "씨": 6207,
      "아": 6208,
      "악": 6209,
      "안": 6210,
      "알": 6211,
      "암": 6212,
      "압": 6213,
      "앙": 6214,
      "앞": 6215,
      "애": 6216,
      "액": 6217,
      "앤": 6218,
      "앨": 6219,
      "앳": 6220,
      "야": 6221,
      "약": 6222,
      "얌": 6223,
      "양": 6224,
      "어": 6225,
      "억": 6226,
      "언": 6227,
      "얼": 6228,
      "엄": 6229,
      "업": 6230,
      "없": 6231,
      "에": 6232,
      "엑": 6233,
      "엔": 6234,
      "엘": 6235,
      "엠": 6236,
      "여": 6237,
      "역": 6238,
      "연": 6239,
      "열": 6240,
      "염": 6241,
      "엽": 6242,
      "엿": 6243,
      "였": 6244,
      "영": 6245,
      "예": 6246,
      "오": 6247,
      "옥": 6248,
      "온": 6249,
      "올": 6250,
      "옷": 6251,
      "와": 6252,
      "완": 6253,
      "왕": 6254,
      "왜": 6255,
      "외": 6256,
      "요": 6257,
      "욕": 6258,
      "용": 6259,
      "우": 6260,
      "욱": 6261,
      "운": 6262,
      "울": 6263,
      "웃": 6264,
      "웅": 6265,
      "워": 6266,
      "원": 6267,
      "월": 6268,
      "웬": 6269,
      "위": 6270,
      "윙": 6271,
      "유": 6272,
      "육": 6273,
      "윤": 6274,
      "율": 6275,
      "융": 6276,
      "으": 6277,
      "은": 6278,
      "을": 6279,
      "음": 6280,
      "읍": 6281,
      "응": 6282,
      "의": 6283,
      "이": 6284,
      "익": 6285,
      "인": 6286,
      "일": 6287,
      "임": 6288,
      "입": 6289,
      "잇": 6290,
      "있": 6291,
      "잉": 6292,
      "잊": 6293,
      "자": 6294,
      "작": 6295,
      "잔": 6296,
      "잖": 6297,
      "잘": 6298,
      "잠": 6299,
      "잡": 6300,
      "잤": 6301,
      "장": 6302,
      "재": 6303,
      "잭": 6304,
      "쟁": 6305,
      "저": 6306,
      "적": 6307,
      "전": 6308,
      "절": 6309,
      "점": 6310,
      "젓": 6311,
      "정": 6312,
      "제": 6313,
      "젝": 6314,
      "조": 6315,
      "족": 6316,
      "종": 6317,
      "좋": 6318,
      "죠": 6319,
      "죤": 6320,
      "주": 6321,
      "죽": 6322,
      "준": 6323,
      "줄": 6324,
      "중": 6325,
      "줘": 6326,
      "쥬": 6327,
      "즈": 6328,
      "즙": 6329,
      "지": 6330,
      "직": 6331,
      "진": 6332,
      "질": 6333,
      "짐": 6334,
      "집": 6335,
      "짓": 6336,
      "짜": 6337,
      "짝": 6338,
      "짱": 6339,
      "쩐": 6340,
      "쩔": 6341,
      "쪽": 6342,
      "쯔": 6343,
      "쯤": 6344,
      "찌": 6345,
      "찢": 6346,
      "차": 6347,
      "찬": 6348,
      "참": 6349,
      "창": 6350,
      "채": 6351,
      "책": 6352,
      "처": 6353,
      "척": 6354,
      "천": 6355,
      "철": 6356,
      "첨": 6357,
      "첩": 6358,
      "첫": 6359,
      "청": 6360,
      "체": 6361,
      "첸": 6362,
      "쳐": 6363,
      "초": 6364,
      "총": 6365,
      "최": 6366,
      "추": 6367,
      "축": 6368,
      "춘": 6369,
      "충": 6370,
      "춰": 6371,
      "츄": 6372,
      "츠": 6373,
      "치": 6374,
      "칙": 6375,
      "친": 6376,
      "칠": 6377,
      "침": 6378,
      "카": 6379,
      "캅": 6380,
      "캐": 6381,
      "캔": 6382,
      "캬": 6383,
      "커": 6384,
      "컨": 6385,
      "컬": 6386,
      "컴": 6387,
      "케": 6388,
      "켄": 6389,
      "켓": 6390,
      "코": 6391,
      "콘": 6392,
      "콜": 6393,
      "콤": 6394,
      "쿤": 6395,
      "쿨": 6396,
      "퀸": 6397,
      "큐": 6398,
      "크": 6399,
      "큰": 6400,
      "클": 6401,
      "키": 6402,
      "킥": 6403,
      "킬": 6404,
      "킴": 6405,
      "킹": 6406,
      "타": 6407,
      "탄": 6408,
      "탈": 6409,
      "탐": 6410,
      "탑": 6411,
      "탕": 6412,
      "태": 6413,
      "택": 6414,
      "터": 6415,
      "턴": 6416,
      "털": 6417,
      "테": 6418,
      "텐": 6419,
      "텔": 6420,
      "토": 6421,
      "톤": 6422,
      "톨": 6423,
      "톱": 6424,
      "통": 6425,
      "투": 6426,
      "튀": 6427,
      "트": 6428,
      "특": 6429,
      "틀": 6430,
      "티": 6431,
      "틴": 6432,
      "틸": 6433,
      "파": 6434,
      "판": 6435,
      "팔": 6436,
      "팝": 6437,
      "패": 6438,
      "팬": 6439,
      "퍼": 6440,
      "펀": 6441,
      "펑": 6442,
      "페": 6443,
      "펜": 6444,
      "펫": 6445,
      "편": 6446,
      "평": 6447,
      "폐": 6448,
      "포": 6449,
      "폴": 6450,
      "표": 6451,
      "푼": 6452,
      "품": 6453,
      "프": 6454,
      "픈": 6455,
      "플": 6456,
      "피": 6457,
      "픽": 6458,
      "필": 6459,
      "핑": 6460,
      "하": 6461,
      "학": 6462,
      "한": 6463,
      "할": 6464,
      "함": 6465,
      "합": 6466,
      "해": 6467,
      "햄": 6468,
      "했": 6469,
      "행": 6470,
      "향": 6471,
      "허": 6472,
      "헌": 6473,
      "험": 6474,
      "헬": 6475,
      "혁": 6476,
      "현": 6477,
      "형": 6478,
      "혜": 6479,
      "호": 6480,
      "혹": 6481,
      "혼": 6482,
      "홀": 6483,
      "홉": 6484,
      "홍": 6485,
      "화": 6486,
      "확": 6487,
      "환": 6488,
      "활": 6489,
      "황": 6490,
      "회": 6491,
      "획": 6492,
      "효": 6493,
      "후": 6494,
      "훈": 6495,
      "훗": 6496,
      "휘": 6497,
      "휴": 6498,
      "흑": 6499,
      "흥": 6500,
      "희": 6501,
      "히": 6502,
      "힘": 6503,
      "": 6504,
      "": 6505,
      "": 6506,
      "": 6507,
      "": 6508,
      "": 6509,
      "": 6510,
      "": 6511,
      "": 6512,
      "": 6513,
      "﨑": 6514,
      "ﬁ": 6515,
      "ﬂ": 6516,
      "ﭖ": 6517,
      "ﭗ": 6518,
      "ﭺ": 6519,
      "ﭽ": 6520,
      "ﮊ": 6521,
      "ﮒ": 6522,
      "ﯘ": 6523,
      "ﯩ": 6524,
      "ﯼ": 6525,
      "ﯾ": 6526,
      "﴾": 6527,
      "﴿": 6528,
      "ﷲ": 6529,
      "ﷺ": 6530,
      "️": 6531,
      "︠": 6532,
      "︡": 6533,
      "ﺁ": 6534,
      "ﺋ": 6535,
      "ﺍ": 6536,
      "ﺎ": 6537,
      "ﺏ": 6538,
      "ﺐ": 6539,
      "ﺑ": 6540,
      "ﺒ": 6541,
      "ﺕ": 6542,
      "ﺖ": 6543,
      "ﺗ": 6544,
      "ﺘ": 6545,
      "ﺙ": 6546,
      "ﺛ": 6547,
      "ﺝ": 6548,
      "ﺟ": 6549,
      "ﺠ": 6550,
      "ﺣ": 6551,
      "ﺤ": 6552,
      "ﺧ": 6553,
      "ﺨ": 6554,
      "ﺩ": 6555,
      "ﺪ": 6556,
      "ﺫ": 6557,
      "ﺬ": 6558,
      "ﺭ": 6559,
      "ﺮ": 6560,
      "ﺯ": 6561,
      "ﺱ": 6562,
      "ﺲ": 6563,
      "ﺳ": 6564,
      "ﺴ": 6565,
      "ﺵ": 6566,
      "ﺷ": 6567,
      "ﺸ": 6568,
      "ﺻ": 6569,
      "ﺼ": 6570,
      "ﺿ": 6571,
      "ﻀ": 6572,
      "ﻄ": 6573,
      "ﻆ": 6574,
      "ﻊ": 6575,
      "ﻋ": 6576,
      "ﻌ": 6577,
      "ﻑ": 6578,
      "ﻒ": 6579,
      "ﻓ": 6580,
      "ﻔ": 6581,
      "ﻕ": 6582,
      "ﻖ": 6583,
      "ﻗ": 6584,
      "ﻘ": 6585,
      "ﻙ": 6586,
      "ﻚ": 6587,
      "ﻛ": 6588,
      "ﻜ": 6589,
      "ﻝ": 6590,
      "ﻞ": 6591,
      "ﻟ": 6592,
      "ﻠ": 6593,
      "ﻢ": 6594,
      "ﻣ": 6595,
      "ﻤ": 6596,
      "ﻥ": 6597,
      "ﻦ": 6598,
      "ﻧ": 6599,
      "ﻨ": 6600,
      "ﻩ": 6601,
      "ﻪ": 6602,
      "ﻫ": 6603,
      "ﻬ": 6604,
      "ﻭ": 6605,
      "ﻮ": 6606,
      "ﻰ": 6607,
      "ﻱ": 6608,
      "ﻳ": 6609,
      "ﻴ": 6610,
      "ﻹ": 6611,
      "ﻻ": 6612,
      "ﻼ": 6613,
      "﻿": 6614,
      "！": 6615,
      "＃": 6616,
      "＆": 6617,
      "（": 6618,
      "）": 6619,
      "，": 6620,
      "－": 6621,
      "／": 6622,
      "６": 6623,
      "：": 6624,
      "；": 6625,
      "＝": 6626,
      "ｊ": 6627,
      "｜": 6628,
      "～": 6629,
      "･": 6630,
      "￥": 6631,
      "￼": 6632,
      "�": 6633,
      "𐊀": 6634,
      "𐊆": 6635,
      "𐊎": 6636,
      "𐊐": 6637,
      "𐊓": 6638,
      "𐊕": 6639,
      "𐊖": 6640,
      "𐊗": 6641,
      "𐎀": 6642,
      "𐎗": 6643,
      "𐎘": 6644,
      "𐎚": 6645,
      "𐎠": 6646,
      "𐎡": 6647,
      "𐎢": 6648,
      "𐎭": 6649,
      "𐎱": 6650,
      "𐎴": 6651,
      "𐎷": 6652,
      "𐎹": 6653,
      "𐎺": 6654,
      "𐎼": 6655,
      "𐎿": 6656,
      "𐏁": 6657,
      "𐤁": 6658,
      "𐤇": 6659,
      "𐤊": 6660,
      "𐤋": 6661,
      "𐤍": 6662,
      "𐤏": 6663,
      "𐤒": 6664,
      "𐤓": 6665,
      "𐤟": 6666,
      "𐩭": 6667,
      "𐩽": 6668,
      "𐩿": 6669,
      "𐭠": 6670,
      "𐭡": 6671,
      "𐭢": 6672,
      "𐭣": 6673,
      "𐭤": 6674,
      "𐭥": 6675,
      "𐭦": 6676,
      "𐭧": 6677,
      "𐭩": 6678,
      "𐭪": 6679,
      "𐭫": 6680,
      "𐭬": 6681,
      "𐭭": 6682,
      "𐭮": 6683,
      "𐭯": 6684,
      "𐭱": 6685,
      "𐭲": 6686,
      "𐰀": 6687,
      "𐰃": 6688,
      "𐰆": 6689,
      "𐰇": 6690,
      "𐰉": 6691,
      "𐰋": 6692,
      "𐰍": 6693,
      "𐰏": 6694,
      "𐰑": 6695,
      "𐰓": 6696,
      "𐰔": 6697,
      "𐰕": 6698,
      "𐰖": 6699,
      "𐰚": 6700,
      "𐰛": 6701,
      "𐰜": 6702,
      "𐰞": 6703,
      "𐰠": 6704,
      "𐰢": 6705,
      "𐰣": 6706,
      "𐰭": 6707,
      "𐰰": 6708,
      "𐰲": 6709,
      "𐰴": 6710,
      "𐰶": 6711,
      "𐰸": 6712,
      "𐰺": 6713,
      "𐰼": 6714,
      "𐰾": 6715,
      "𐱁": 6716,
      "𐱃": 6717,
      "𐱅": 6718,
      "𐴌": 6719,
      "𐴒": 6720,
      "𐴗": 6721,
      "𐴙": 6722,
      "𐴚": 6723,
      "𐴝": 6724,
      "𐴥": 6725,
      "𒀏": 6726,
      "𒀭": 6727,
      "𒀯": 6728,
      "𒀳": 6729,
      "𒁀": 6730,
      "𒁈": 6731,
      "𒁱": 6732,
      "𒁲": 6733,
      "𒁺": 6734,
      "𒂗": 6735,
      "𒂷": 6736,
      "𒃲": 6737,
      "𒃾": 6738,
      "𒄿": 6739,
      "𒅗": 6740,
      "𒆤": 6741,
      "𒇻": 6742,
      "𒈗": 6743,
      "𒈥": 6744,
      "𒉺": 6745,
      "𒊒": 6746,
      "𒊩": 6747,
      "𒊭": 6748,
      "𒋫": 6749,
      "𒋼": 6750,
      "𒌅": 6751,
      "𒌆": 6752,
      "𒌉": 6753,
      "𒌑": 6754,
      "𒌷": 6755,
      "𒍝": 6756,
      "𒍣": 6757,
      "𝐿": 6758,
      "𝑄": 6759,
      "𝑏": 6760,
      "𝑚": 6761,
      "𝛿": 6762,
      "🇷": 6763,
      "🇹": 6764,
      "🏼": 6765,
      "💀": 6766,
      "📖": 6767,
      "🖤": 6768,
      "😀": 6769,
      "😁": 6770,
      "😂": 6771,
      "🚲": 6772,
      "🧚": 6773,
      "􀁾": 6774,
      "ar": 6775,
      "an": 6776,
      "er": 6777,
      "in": 6778,
      "ın": 6779,
      "en": 6780,
      "ir": 6781,
      "il": 6782,
      "da": 6783,
      "al": 6784,
      "de": 6785,
      "ak": 6786,
      "ol": 6787,
      "ya": 6788,
      "ve": 6789,
      "el": 6790,
      "lar": 6791,
      "on": 6792,
      "un": 6793,
      "as": 6794,
      "et": 6795,
      "ır": 6796,
      "es": 6797,
      "ek": 6798,
      "ik": 6799,
      "is": 6800,
      "ıl": 6801,
      "ler": 6802,
      "am": 6803,
      "bir": 6804,
      "at": 6805,
      "ay": 6806,
      "or": 6807,
      "ur": 6808,
      "ul": 6809,
      "ad": 6810,
      "şt": 6811,
      "em": 6812,
      "ında": 6813,
      "ed": 6814,
      "im": 6815,
      "ün": 6816,
      "iy": 6817,
      "aş": 6818,
      "ür": 6819,
      "it": 6820,
      "lı": 6821,
      "le": 6822,
      "di": 6823,
      "dan": 6824,
      "li": 6825,
      "inde": 6826,
      "19": 6827,
      "==": 6828,
      "dı": 6829,
      "ey": 6830,
      "iş": 6831,
      "lan": 6832,
      "az": 6833,
      "20": 6834,
      "du": 6835,
      "ön": 6836,
      "ma": 6837,
      "arak": 6838,
      "us": 6839,
      "ine": 6840,
      "ör": 6841,
      "yıl": 6842,
      "ık": 6843,
      "den": 6844,
      "la": 6845,
      "iç": 6846,
      "sa": 6847,
      "ım": 6848,
      "ki": 6849,
      "ra": 6850,
      "iz": 6851,
      "tar": 6852,
      "ile": 6853,
      "üz": 6854,
      "ış": 6855,
      "ası": 6856,
      "te": 6857,
      "ab": 6858,
      "ev": 6859,
      "esi": 6860,
      "ük": 6861,
      "son": 6862,
      "ok": 6863,
      "ları": 6864,
      "ti": 6865,
      "tan": 6866,
      "olarak": 6867,
      "ini": 6868,
      "ından": 6869,
      "üm": 6870,
      "um": 6871,
      "ta": 6872,
      "ğı": 6873,
      "ül": 6874,
      "yap": 6875,
      "dir": 6876,
      "baş": 6877,
      "ını": 6878,
      "ez": 6879,
      "eri": 6880,
      "ilm": 6881,
      "ha": 6882,
      "dır": 6883,
      "inin": 6884,
      "oğ": 6885,
      "leri": 6886,
      "om": 6887,
      "ştir": 6888,
      "ına": 6889,
      "os": 6890,
      "öl": 6891,
      "bu": 6892,
      "ıs": 6893,
      "kar": 6894,
      "ği": 6895,
      "mak": 6896,
      "ştır": 6897,
      "ağ": 6898,
      "ce": 6899,
      "oy": 6900,
      "gör": 6901,
      "af": 6902,
      "ver": 6903,
      "bul": 6904,
      "lik": 6905,
      "st": 6906,
      "uz": 6907,
      "için": 6908,
      "adı": 6909,
      "ken": 6910,
      "gel": 6911,
      "op": 6912,
      "ih": 6913,
      "ka": 6914,
      "alar": 6915,
      "ca": 6916,
      "lu": 6917,
      "man": 6918,
      "olan": 6919,
      "ist": 6920,
      "tı": 6921,
      "yer": 6922,
      "ut": 6923,
      "iler": 6924,
      "ının": 6925,
      "ıştır": 6926,
      "eç": 6927,
      "lam": 6928,
      "ib": 6929,
      "oldu": 6930,
      "ekt": 6931,
      "iştir": 6932,
      "üy": 6933,
      "201": 6934,
      "asında": 6935,
      "len": 6936,
      "taraf": 6937,
      "ro": 6938,
      "ah": 6939,
      "öz": 6940,
      "ru": 6941,
      "isi": 6942,
      "200": 6943,
      "yılında": 6944,
      "Bu": 6945,
      "bil": 6946,
      "kul": 6947,
      "eş": 6948,
      "ız": 6949,
      "olu": 6950,
      "ci": 6951,
      "ark": 6952,
      "çık": 6953,
      "ip": 6954,
      "tad": 6955,
      "tarafından": 6956,
      "ac": 6957,
      "bulun": 6958,
      "yon": 6959,
      "mıştır": 6960,
      "yan": 6961,
      "lık": 6962,
      "eh": 6963,
      "An": 6964,
      "kur": 6965,
      "dü": 6966,
      "iye": 6967,
      "sonra": 6968,
      "öy": 6969,
      "alı": 6970,
      "der": 6971,
      "tadır": 6972,
      "ürk": 6973,
      "cu": 6974,
      "alan": 6975,
      "eler": 6976,
      "yla": 6977,
      "ap": 6978,
      "mu": 6979,
      "tak": 6980,
      "ter": 6981,
      "ğu": 6982,
      "edir": 6983,
      "ran": 6984,
      "mer": 6985,
      "ması": 6986,
      "art": 6987,
      "Türk": 6988,
      "ada": 6989,
      "ot": 6990,
      "av": 6991,
      "nin": 6992,
      "yar": 6993,
      "etm": 6994,
      "inden": 6995,
      "unda": 6996,
      "ayı": 6997,
      "kullan": 6998,
      "Al": 6999,
      "ic": 7000,
      "nın": 7001,
      "kon": 7002,
      "eni": 7003,
      "çok": 7004,
      "ilk": 7005,
      "gen": 7006,
      "kan": 7007,
      "dur": 7008,
      "ların": 7009,
      "hal": 7010,
      "tarih": 7011,
      "re": 7012,
      "cak": 7013,
      "kad": 7014,
      "önem": 7015,
      "yaz": 7016,
      "sür": 7017,
      "bağ": 7018,
      "),": 7019,
      "böl": 7020,
      "eden": 7021,
      "İs": 7022,
      "gün": 7023,
      "ger": 7024,
      "daha": 7025,
      "ise": 7026,
      "üç": 7027,
      "geç": 7028,
      "ştur": 7029,
      "lem": 7030,
      "let": 7031,
      "ilen": 7032,
      "san": 7033,
      "00": 7034,
      "unu": 7035,
      "var": 7036,
      "ibi": 7037,
      "si": 7038,
      "üzer": 7039,
      "ne": 7040,
      "tek": 7041,
      "kal": 7042,
      "doğ": 7043,
      "üyük": 7044,
      "ılan": 7045,
      "maktadır": 7046,
      "par": 7047,
      "kat": 7048,
      "ili": 7049,
      "ri": 7050,
      "cı": 7051,
      "ektedir": 7052,
      "ov": 7053,
      "kez": 7054,
      "yön": 7055,
      "aç": 7056,
      "18": 7057,
      "he": 7058,
      "bel": 7059,
      "yaş": 7060,
      "met": 7061,
      "arasında": 7062,
      "if": 7063,
      "iyle": 7064,
      "ildi": 7065,
      "çek": 7066,
      "gi": 7067,
      "ec": 7068,
      "gö": 7069,
      "aman": 7070,
      "Bir": 7071,
      "ğer": 7072,
      "Ar": 7073,
      "199": 7074,
      "sah": 7075,
      "mış": 7076,
      "top": 7077,
      "mas": 7078,
      "yay": 7079,
      "sel": 7080,
      "ayn": 7081,
      "uk": 7082,
      "uy": 7083,
      "oyun": 7084,
      "gibi": 7085,
      "esine": 7086,
      "karş": 7087,
      "ısı": 7088,
      "ladı": 7089,
      "leş": 7090,
      "tür": 7091,
      "eb": 7092,
      "çal": 7093,
      "ıldı": 7094,
      "id": 7095,
      "mü": 7096,
      "iyet": 7097,
      "har": 7098,
      "dür": 7099,
      "ede": 7100,
      "tr": 7101,
      "dev": 7102,
      "ni": 7103,
      "sır": 7104,
      "büyük": 7105,
      "eye": 7106,
      "arı": 7107,
      "yak": 7108,
      "unun": 7109,
      "uş": 7110,
      "iki": 7111,
      "takım": 7112,
      "ilir": 7113,
      "lerin": 7114,
      "ayan": 7115,
      "kadar": 7116,
      "rup": 7117,
      "larında": 7118,
      "lü": 7119,
      "laş": 7120,
      "edi": 7121,
      "sal": 7122,
      "me": 7123,
      "rı": 7124,
      "for": 7125,
      "esinde": 7126,
      "alt": 7127,
      "zaman": 7128,
      "yüz": 7129,
      "ren": 7130,
      "her": 7131,
      "iyon": 7132,
      "kı": 7133,
      "etti": 7134,
      "çalış": 7135,
      "su": 7136,
      "men": 7137,
      "ara": 7138,
      "veya": 7139,
      "ılı": 7140,
      "üt": 7141,
      "daki": 7142,
      "üs": 7143,
      "şeh": 7144,
      "han": 7145,
      "ilç": 7146,
      "sı": 7147,
      "bol": 7148,
      "amp": 7149,
      "tem": 7150,
      "tal": 7151,
      "malar": 7152,
      "ster": 7153,
      "por": 7154,
      "ser": 7155,
      "198": 7156,
      "İn": 7157,
      "liği": 7158,
      "se": 7159,
      "göre": 7160,
      "kaz": 7161,
      "pro": 7162,
      "ing": 7163,
      "muştur": 7164,
      "yat": 7165,
      "eli": 7166,
      "ünya": 7167,
      "larda": 7168,
      "Av": 7169,
      "miştir": 7170,
      "Ay": 7171,
      "imi": 7172,
      "yük": 7173,
      "raf": 7174,
      "ch": 7175,
      "ordu": 7176,
      "film": 7177,
      "ama": 7178,
      "bağlı": 7179,
      "değ": 7180,
      "oz": 7181,
      "rak": 7182,
      "usu": 7183,
      "say": 7184,
      "yeni": 7185,
      "sit": 7186,
      "birlik": 7187,
      "görev": 7188,
      "lığı": 7189,
      "inci": 7190,
      "maya": 7191,
      "dönem": 7192,
      "üf": 7193,
      "istan": 7194,
      "ika": 7195,
      "tam": 7196,
      "ellik": 7197,
      "şek": 7198,
      "düz": 7199,
      "göster": 7200,
      "olo": 7201,
      "tur": 7202,
      "asyon": 7203,
      "yet": 7204,
      "ünde": 7205,
      "gir": 7206,
      "ig": 7207,
      "res": 7208,
      "edilm": 7209,
      "kiş": 7210,
      "kurul": 7211,
      "aldı": 7212,
      "eğ": 7213,
      "lara": 7214,
      "ezon": 7215,
      "gil": 7216,
      "düş": 7217,
      "arkı": 7218,
      "una": 7219,
      "olduğu": 7220,
      "mil": 7221,
      "sek": 7222,
      "Türkiye": 7223,
      "ten": 7224,
      "Er": 7225,
      "mektedir": 7226,
      "seç": 7227,
      "km": 7228,
      "tarihinde": 7229,
      "Kar": 7230,
      "sağ": 7231,
      "Amer": 7232,
      "sahip": 7233,
      "ber": 7234,
      "larını": 7235,
      "nde": 7236,
      "ge": 7237,
      "sız": 7238,
      "ard": 7239,
      "kap": 7240,
      "ğini": 7241,
      "kazan": 7242,
      "10": 7243,
      "mek": 7244,
      "çe": 7245,
      "büm": 7246,
      "Fran": 7247,
      "maç": 7248,
      "ye": 7249,
      "197": 7250,
      "bat": 7251,
      "lerini": 7252,
      "Or": 7253,
      "sav": 7254,
      "merkez": 7255,
      "oyn": 7256,
      "sezon": 7257,
      "mi": 7258,
      "anı": 7259,
      "miş": 7260,
      "taş": 7261,
      "bulunan": 7262,
      "up": 7263,
      "diğer": 7264,
      "15": 7265,
      "of": 7266,
      "ade": 7267,
      "ram": 7268,
      "azı": 7269,
      "köy": 7270,
      "na": 7271,
      "hak": 7272,
      "eleri": 7273,
      "eder": 7274,
      "istem": 7275,
      "İl": 7276,
      "etk": 7277,
      "birlikte": 7278,
      "yol": 7279,
      "En": 7280,
      "od": 7281,
      "ştı": 7282,
      "belir": 7283,
      "dön": 7284,
      "yaptı": 7285,
      "aya": 7286,
      "yayın": 7287,
      "kab": 7288,
      "ask": 7289,
      "alık": 7290,
      "larının": 7291,
      "öğ": 7292,
      "versit": 7293,
      "ans": 7294,
      "üş": 7295,
      "yen": 7296,
      "ep": 7297,
      "neden": 7298,
      "196": 7299,
      "cü": 7300,
      "kim": 7301,
      "lat": 7302,
      "tır": 7303,
      "rıca": 7304,
      "uç": 7305,
      "deki": 7306,
      "og": 7307,
      "lerinde": 7308,
      "ülk": 7309,
      "nüf": 7310,
      "ımı": 7311,
      "17": 7312,
      "van": 7313,
      "tir": 7314,
      "eti": 7315,
      "bak": 7316,
      "oloj": 7317,
      "kay": 7318,
      "Gen": 7319,
      "kend": 7320,
      "etim": 7321,
      "Alman": 7322,
      "yal": 7323,
      "nda": 7324,
      "12": 7325,
      "utbol": 7326,
      "fa": 7327,
      "üp": 7328,
      "albüm": 7329,
      "ılır": 7330,
      "aynı": 7331,
      "\",": 7332,
      "eyi": 7333,
      "karşı": 7334,
      "ileri": 7335,
      "dül": 7336,
      "Kon": 7337,
      "oluş": 7338,
      "can": 7339,
      "sen": 7340,
      "İngil": 7341,
      "gerçek": 7342,
      "olduğ": 7343,
      "16": 7344,
      "Baş": 7345,
      "olm": 7346,
      "lerinin": 7347,
      "ünü": 7348,
      "başladı": 7349,
      "Dev": 7350,
      "yas": 7351,
      "est": 7352,
      "kom": 7353,
      "sil": 7354,
      "gelen": 7355,
      "bölg": 7356,
      "ef": 7357,
      "mes": 7358,
      "lığ": 7359,
      "açık": 7360,
      "hem": 7361,
      "larına": 7362,
      "ag": 7363,
      "hur": 7364,
      "Ro": 7365,
      "uv": 7366,
      "müz": 7367,
      "lerde": 7368,
      "Os": 7369,
      "leştir": 7370,
      "Tar": 7371,
      "landı": 7372,
      "II": 7373,
      "adlı": 7374,
      "abilir": 7375,
      "luk": 7376,
      "ral": 7377,
      "ellikle": 7378,
      "ça": 7379,
      "adan": 7380,
      "nun": 7381,
      "üst": 7382,
      "kö": 7383,
      "içer": 7384,
      "enin": 7385,
      "bölüm": 7386,
      "Gün": 7387,
      "fark": 7388,
      "tanbul": 7389,
      "Sav": 7390,
      "fer": 7391,
      "İstanbul": 7392,
      "ilçesine": 7393,
      "inal": 7394,
      "ant": 7395,
      "şekil": 7396,
      "uyg": 7397,
      "ağı": 7398,
      "önemli": 7399,
      "bilin": 7400,
      "ent": 7401,
      "eşit": 7402,
      "niversit": 7403,
      "kor": 7404,
      "düzen": 7405,
      "hat": 7406,
      "bur": 7407,
      "yı": 7408,
      "orta": 7409,
      "uzey": 7410,
      "rol": 7411,
      "diği": 7412,
      "ılmıştır": 7413,
      "14": 7414,
      "Avrup": 7415,
      "içinde": 7416,
      "erek": 7417,
      "Mar": 7418,
      "Rus": 7419,
      "bit": 7420,
      "Dünya": 7421,
      "dik": 7422,
      "ayr": 7423,
      "şarkı": 7424,
      "ast": 7425,
      "sistem": 7426,
      "dol": 7427,
      "ust": 7428,
      "195": 7429,
      "mo": 7430,
      "diz": 7431,
      "eski": 7432,
      "Üniversit": 7433,
      "194": 7434,
      "iyi": 7435,
      "pi": 7436,
      "ampiyon": 7437,
      "biri": 7438,
      "aları": 7439,
      "13": 7440,
      "bilir": 7441,
      "dış": 7442,
      "oluştur": 7443,
      "lardan": 7444,
      "atı": 7445,
      "faz": 7446,
      "ana": 7447,
      "liğ": 7448,
      "ancak": 7449,
      "söz": 7450,
      "tel": 7451,
      "ow": 7452,
      "yapılan": 7453,
      "landır": 7454,
      "Avrupa": 7455,
      "Kas": 7456,
      "The": 7457,
      "şehir": 7458,
      "ocu": 7459,
      "Ağ": 7460,
      "mesi": 7461,
      "umhur": 7462,
      "lere": 7463,
      "etir": 7464,
      "Mart": 7465,
      "bin": 7466,
      "cek": 7467,
      "kes": 7468,
      "insan": 7469,
      "ilg": 7470,
      "ilik": 7471,
      "bas": 7472,
      "mal": 7473,
      "Osman": 7474,
      "sin": 7475,
      "ck": 7476,
      "Da": 7477,
      "önce": 7478,
      "ele": 7479,
      "ton": 7480,
      "lanan": 7481,
      "gü": 7482,
      "bi": 7483,
      "futbol": 7484,
      "olmuştur": 7485,
      "ilmiştir": 7486,
      "başkan": 7487,
      "ko": 7488,
      "tamam": 7489,
      "lendir": 7490,
      "tüm": 7491,
      "As": 7492,
      "ide": 7493,
      "sat": 7494,
      "arası": 7495,
      "yüksek": 7496,
      "getir": 7497,
      "lerinden": 7498,
      "şekilde": 7499,
      "per": 7500,
      "acak": 7501,
      "gerek": 7502,
      "durum": 7503,
      "kit": 7504,
      "değiş": 7505,
      "lerine": 7506,
      "uzak": 7507,
      "Tem": 7508,
      "kaç": 7509,
      "ılık": 7510,
      "din": 7511,
      "indeki": 7512,
      "larından": 7513,
      "Bel": 7514,
      "vardır": 7515,
      "mı": 7516,
      "Devlet": 7517,
      "zer": 7518,
      "çi": 7519,
      "San": 7520,
      "May": 7521,
      "Savaş": 7522,
      "devam": 7523,
      "oğraf": 7524,
      "sor": 7525,
      "dem": 7526,
      "yl": 7527,
      "ator": 7528,
      "dal": 7529,
      "söy": 7530,
      "itib": 7531,
      "Kur": 7532,
      "çev": 7533,
      "vet": 7534,
      "Tarih": 7535,
      "oğu": 7536,
      "muş": 7537,
      "dar": 7538,
      "kil": 7539,
      "Üniversitesi": 7540,
      "ındaki": 7541,
      "üzerine": 7542,
      "olduğunu": 7543,
      "bazı": 7544,
      "ulu": 7545,
      "Mil": 7546,
      "alın": 7547,
      "üzere": 7548,
      "savaş": 7549,
      "tor": 7550,
      "yi": 7551,
      "30": 7552,
      "Haz": 7553,
      "Amerik": 7554,
      "yor": 7555,
      "sun": 7556,
      "çıkar": 7557,
      "esinin": 7558,
      "üçük": 7559,
      "isim": 7560,
      "ben": 7561,
      "birçok": 7562,
      "asar": 7563,
      "olmak": 7564,
      "ğını": 7565,
      "uzun": 7566,
      "AB": 7567,
      "mez": 7568,
      "gan": 7569,
      "kabul": 7570,
      "Ch": 7571,
      "inc": 7572,
      "siyon": 7573,
      "acı": 7574,
      "oğlu": 7575,
      "Ne": 7576,
      "000": 7577,
      "11": 7578,
      "Öz": 7579,
      "Ayrıca": 7580,
      "kr": 7581,
      "Par": 7582,
      "irk": 7583,
      "İngiliz": 7584,
      "pol": 7585,
      "gal": 7586,
      "elik": 7587,
      "kıs": 7588,
      "dığı": 7589,
      "Son": 7590,
      "Cumhur": 7591,
      "dil": 7592,
      "masına": 7593,
      "ınır": 7594,
      "çeşit": 7595,
      "grup": 7596,
      "yüzyıl": 7597,
      "lim": 7598,
      "çocu": 7599,
      "göz": 7600,
      "Osmanlı": 7601,
      "kol": 7602,
      "ıt": 7603,
      "Mayıs": 7604,
      "itim": 7605,
      "lus": 7606,
      "edildi": 7607,
      "luğu": 7608,
      "Ak": 7609,
      "2010": 7610,
      "iran": 7611,
      "üne": 7612,
      "ikinci": 7613,
      "başar": 7614,
      "Ocak": 7615,
      "mahal": 7616,
      "Şu": 7617,
      "ia": 7618,
      "kayn": 7619,
      "isan": 7620,
      "Kasım": 7621,
      "ilinin": 7622,
      "Mer": 7623,
      "parator": 7624,
      "bo": 7625,
      "siz": 7626,
      "isinde": 7627,
      "ğü": 7628,
      "anlam": 7629,
      "ucu": 7630,
      "Her": 7631,
      "gru": 7632,
      "tes": 7633,
      "parç": 7634,
      "spor": 7635,
      "Br": 7636,
      "fes": 7637,
      "tah": 7638,
      "aret": 7639,
      "yaklaş": 7640,
      "ılmış": 7641,
      "muz": 7642,
      "tu": 7643,
      "Mu": 7644,
      "hil": 7645,
      "form": 7646,
      "uygul": 7647,
      "genel": 7648,
      "İlk": 7649,
      "ştür": 7650,
      "bah": 7651,
      "be": 7652,
      "layan": 7653,
      "çı": 7654,
      "kariy": 7655,
      "25": 7656,
      "ölüm": 7657,
      "dünya": 7658,
      "dım": 7659,
      "fazla": 7660,
      "iliş": 7661,
      "Hal": 7662,
      "güç": 7663,
      "devlet": 7664,
      "harek": 7665,
      "farklı": 7666,
      "pl": 7667,
      "elen": 7668,
      "lis": 7669,
      "duğu": 7670,
      "21": 7671,
      "pan": 7672,
      "kendi": 7673,
      "Eyl": 7674,
      "Eylül": 7675,
      "şti": 7676,
      "geçir": 7677,
      "hük": 7678,
      "ört": 7679,
      "Pro": 7680,
      "akat": 7681,
      "ba": 7682,
      "öğren": 7683,
      "aber": 7684,
      "şi": 7685,
      "Ekim": 7686,
      "Ara": 7687,
      "sanat": 7688,
      "Haziran": 7689,
      "üzerinde": 7690,
      "daş": 7691,
      "özel": 7692,
      "ABD": 7693,
      "Nisan": 7694,
      "esini": 7695,
      "ustos": 7696,
      "uc": 7697,
      "Birleş": 7698,
      "pr": 7699,
      "nik": 7700,
      "At": 7701,
      "eg": 7702,
      "ünün": 7703,
      "Temmuz": 7704,
      "del": 7705,
      "şa": 7706,
      "El": 7707,
      "olup": 7708,
      "gram": 7709,
      "bay": 7710,
      ").": 7711,
      "yakın": 7712,
      "Ağustos": 7713,
      "bun": 7714,
      "ven": 7715,
      "ardından": 7716,
      "Bur": 7717,
      "193": 7718,
      "Di": 7719,
      "üc": 7720,
      "yarış": 7721,
      "ban": 7722,
      "Aralık": 7723,
      "Le": 7724,
      "yaşam": 7725,
      "ou": 7726,
      "üret": 7727,
      "ham": 7728,
      "tut": 7729,
      "Amerika": 7730,
      "tik": 7731,
      "Daha": 7732,
      "rik": 7733,
      "Bak": 7734,
      "sırasında": 7735,
      "atik": 7736,
      "ion": 7737,
      "Kom": 7738,
      "rom": 7739,
      "boyun": 7740,
      "Har": 7741,
      "geri": 7742,
      "onu": 7743,
      "Kan": 7744,
      "ses": 7745,
      "Ancak": 7746,
      "küçük": 7747,
      "ula": 7748,
      "rar": 7749,
      "edilmiştir": 7750,
      "ısında": 7751,
      "nı": 7752,
      "süre": 7753,
      "Man": 7754,
      "görül": 7755,
      "kişi": 7756,
      "kara": 7757,
      "lerden": 7758,
      "oğun": 7759,
      "ilerin": 7760,
      "zor": 7761,
      "masını": 7762,
      "bulunmaktadır": 7763,
      "düşün": 7764,
      "kız": 7765,
      "kır": 7766,
      "lî": 7767,
      "sınır": 7768,
      "haf": 7769,
      "nüfus": 7770,
      "arka": 7771,
      "doğru": 7772,
      "ley": 7773,
      "bar": 7774,
      "gaz": 7775,
      "sev": 7776,
      "hi": 7777,
      "oyuncu": 7778,
      "İm": 7779,
      "Kal": 7780,
      "mey": 7781,
      "iyor": 7782,
      "onom": 7783,
      "yılları": 7784,
      "min": 7785,
      "haz": 7786,
      "Ulus": 7787,
      "Cumhuriyet": 7788,
      "Kral": 7789,
      "ortaya": 7790,
      "yum": 7791,
      "çeşitli": 7792,
      "to": 7793,
      "lay": 7794,
      "rek": 7795,
      "sayı": 7796,
      "tep": 7797,
      "ültür": 7798,
      "lük": 7799,
      "Şubat": 7800,
      "va": 7801,
      "mad": 7802,
      "lo": 7803,
      "onya": 7804,
      "unan": 7805,
      "dağ": 7806,
      "erk": 7807,
      "çalışmalar": 7808,
      "larla": 7809,
      "İtal": 7810,
      "fi": 7811,
      "git": 7812,
      "ener": 7813,
      "meye": 7814,
      "alet": 7815,
      "sonr": 7816,
      "Birleşik": 7817,
      "atan": 7818,
      "bab": 7819,
      "ümüz": 7820,
      "ait": 7821,
      "tab": 7822,
      "Savaşı": 7823,
      "onun": 7824,
      "toplam": 7825,
      "edilen": 7826,
      "sade": 7827,
      "lenen": 7828,
      "kullanıl": 7829,
      "müzik": 7830,
      "boyunca": 7831,
      "list": 7832,
      "las": 7833,
      "ret": 7834,
      "Af": 7835,
      "adığı": 7836,
      "Li": 7837,
      "Jo": 7838,
      "değer": 7839,
      "ina": 7840,
      "izmet": 7841,
      "2012": 7842,
      "24": 7843,
      "val": 7844,
      "Yar": 7845,
      "med": 7846,
      "deniz": 7847,
      "Es": 7848,
      "ledi": 7849,
      "yılı": 7850,
      "lararası": 7851,
      "Büyük": 7852,
      "ulus": 7853,
      "\")": 7854,
      "geliştir": 7855,
      "(\"": 7856,
      "müştür": 7857,
      "eser": 7858,
      "2009": 7859,
      "ari": 7860,
      "zamanda": 7861,
      "rağ": 7862,
      "üncü": 7863,
      "tif": 7864,
      "karar": 7865,
      "gı": 7866,
      "hay": 7867,
      "ilişk": 7868,
      "nedeniyle": 7869,
      "kent": 7870,
      "asına": 7871,
      "geliş": 7872,
      "gu": 7873,
      "ort": 7874,
      "26": 7875,
      "bilim": 7876,
      "final": 7877,
      "eme": 7878,
      "dest": 7879,
      "şirk": 7880,
      "2011": 7881,
      "şehr": 7882,
      "sadece": 7883,
      "görün": 7884,
      "önc": 7885,
      "ehir": 7886,
      "kadın": 7887,
      "tanım": 7888,
      "28": 7889,
      "uzaklık": 7890,
      "hareket": 7891,
      "23": 7892,
      "end": 7893,
      "bile": 7894,
      "osu": 7895,
      "yeniden": 7896,
      "yapı": 7897,
      "ilmiş": 7898,
      "ölç": 7899,
      "nüfusu": 7900,
      "halk": 7901,
      "eğitim": 7902,
      "Genel": 7903,
      "uvvet": 7904,
      "ırak": 7905,
      "In": 7906,
      "saldır": 7907,
      "has": 7908,
      "lardır": 7909,
      "çocuk": 7910,
      "tü": 7911,
      "hız": 7912,
      "Han": 7913,
      "öyle": 7914,
      "oğrafya": 7915,
      "şu": 7916,
      "gol": 7917,
      "yaklaşık": 7918,
      "yayım": 7919,
      "yo": 7920,
      "ail": 7921,
      "yardım": 7922,
      "destek": 7923,
      "ök": 7924,
      "Almanya": 7925,
      "üb": 7926,
      "önder": 7927,
      "mahall": 7928,
      "ğin": 7929,
      "Bil": 7930,
      "mev": 7931,
      "22": 7932,
      "Köy": 7933,
      "yok": 7934,
      "seçim": 7935,
      "vi": 7936,
      "yerleş": 7937,
      "karak": 7938,
      "hakk": 7939,
      "Ab": 7940,
      "kısa": 7941,
      "kaynak": 7942,
      "2008": 7943,
      "isinin": 7944,
      "lama": 7945,
      "Kat": 7946,
      "and": 7947,
      "ova": 7948,
      "Ödül": 7949,
      "üsü": 7950,
      "bırak": 7951,
      "lak": 7952,
      "hizmet": 7953,
      "geniş": 7954,
      "ünden": 7955,
      "program": 7956,
      "Fransız": 7957,
      "bulunur": 7958,
      "duy": 7959,
      "lin": 7960,
      "usunda": 7961,
      "det": 7962,
      "lanmıştır": 7963,
      "osyal": 7964,
      "plan": 7965,
      "İmparator": 7966,
      "aktadır": 7967,
      "mem": 7968,
      "kuzey": 7969,
      "Yunan": 7970,
      "kel": 7971,
      "yıldı": 7972,
      "kü": 7973,
      "topl": 7974,
      "Yeni": 7975,
      "başlam": 7976,
      "Si": 7977,
      "undan": 7978,
      "Güney": 7979,
      "sar": 7980,
      "Film": 7981,
      "altında": 7982,
      "sık": 7983,
      "isini": 7984,
      "hazır": 7985,
      "elekt": 7986,
      "Başkan": 7987,
      "bilg": 7988,
      "ud": 7989,
      "Den": 7990,
      "27": 7991,
      "2014": 7992,
      "ron": 7993,
      "giy": 7994,
      "mam": 7995,
      "Gal": 7996,
      "aşa": 7997,
      "ince": 7998,
      "anın": 7999,
      "Kor": 8000,
      "Lig": 8001,
      "yerine": 8002,
      "değil": 8003,
      "dak": 8004,
      "cin": 8005,
      "Coğrafya": 8006,
      "lerle": 8007,
      "kas": 8008,
      "dört": 8009,
      "asker": 8010,
      "ind": 8011,
      "boy": 8012,
      "Oy": 8013,
      "ilgili": 8014,
      "yüksel": 8015,
      "Ada": 8016,
      "güney": 8017,
      "rağmen": 8018,
      "tör": 8019,
      "ılması": 8020,
      "2013": 8021,
      "dahil": 8022,
      "araştır": 8023,
      "yıldız": 8024,
      "olay": 8025,
      "Fransa": 8026,
      "sını": 8027,
      "Şampiyon": 8028,
      "ediy": 8029,
      "Kuzey": 8030,
      "2007": 8031,
      "Jap": 8032,
      "hayat": 8033,
      "yaptığı": 8034,
      "2015": 8035,
      "isyon": 8036,
      "Dem": 8037,
      "gerçekleştir": 8038,
      "ulaş": 8039,
      "temsil": 8040,
      "New": 8041,
      "ga": 8042,
      "deği": 8043,
      "Sov": 8044,
      "luğ": 8045,
      "Tek": 8046,
      "ece": 8047,
      "etmen": 8048,
      "konu": 8049,
      "çıktı": 8050,
      "dok": 8051,
      "Mus": 8052,
      "Sovyet": 8053,
      "Am": 8054,
      "kem": 8055,
      "merkezi": 8056,
      "olması": 8057,
      "2006": 8058,
      "Co": 8059,
      "ödül": 8060,
      "inan": 8061,
      "Pol": 8062,
      "şampiyon": 8063,
      "ho": 8064,
      "kayb": 8065,
      "elde": 8066,
      "tekrar": 8067,
      "50": 8068,
      "mayı": 8069,
      "karşıl": 8070,
      "des": 8071,
      "Ankara": 8072,
      "öldür": 8073,
      "ros": 8074,
      "almıştır": 8075,
      "Ber": 8076,
      "üdür": 8077,
      "etmek": 8078,
      "kazandı": 8079,
      "2016": 8080,
      "olur": 8081,
      "ağır": 8082,
      "the": 8083,
      "Bey": 8084,
      "olduk": 8085,
      "Bunun": 8086,
      "tasar": 8087,
      "gar": 8088,
      "leme": 8089,
      "Bar": 8090,
      "isine": 8091,
      "uzaklıktadır": 8092,
      "gın": 8093,
      "Kup": 8094,
      "yalı": 8095,
      "asının": 8096,
      "ann": 8097,
      "anlaş": 8098,
      "Tarihçe": 8099,
      "ift": 8100,
      "oloji": 8101,
      "gönder": 8102,
      "mik": 8103,
      "etmiştir": 8104,
      "Mah": 8105,
      "çevr": 8106,
      "rat": 8107,
      "tay": 8108,
      "izm": 8109,
      "rans": 8110,
      "ektör": 8111,
      "itik": 8112,
      "ılım": 8113,
      "futbolcu": 8114,
      "milyon": 8115,
      "eyalet": 8116,
      "net": 8117,
      "aj": 8118,
      "yür": 8119,
      "geldi": 8120,
      "yazar": 8121,
      "pek": 8122,
      "siya": 8123,
      "gin": 8124,
      "anda": 8125,
      "uluk": 8126,
      "tic": 8127,
      "seb": 8128,
      "ğında": 8129,
      "ayrıca": 8130,
      "geler": 8131,
      "ecek": 8132,
      "ütün": 8133,
      "29": 8134,
      "ich": 8135,
      "inşa": 8136,
      "ji": 8137,
      "eviz": 8138,
      "yönet": 8139,
      "nok": 8140,
      "Amerikan": 8141,
      "başka": 8142,
      "trol": 8143,
      "uğ": 8144,
      "rad": 8145,
      "Kul": 8146,
      "genellikle": 8147,
      "belirt": 8148,
      "ona": 8149,
      "ry": 8150,
      "St": 8151,
      "Ser": 8152,
      "ydı": 8153,
      "maz": 8154,
      "kültür": 8155,
      "ilmesi": 8156,
      "ris": 8157,
      "Der": 8158,
      "asını": 8159,
      "Part": 8160,
      "idi": 8161,
      "sahiptir": 8162,
      "altı": 8163,
      "karakter": 8164,
      "sam": 8165,
      "Avus": 8166,
      "değiştir": 8167,
      "ori": 8168,
      "Mo": 8169,
      "adıyla": 8170,
      "mir": 8171,
      "Tur": 8172,
      "anan": 8173,
      "Çin": 8174,
      "ektir": 8175,
      "itibarı": 8176,
      "beri": 8177,
      "sırada": 8178,
      "aren": 8179,
      "sonuç": 8180,
      "temel": 8181,
      "ışı": 8182,
      "millî": 8183,
      "hn": 8184,
      "kop": 8185,
      "taşı": 8186,
      "Hol": 8187,
      "dav": 8188,
      "Bo": 8189,
      "Müz": 8190,
      "hiç": 8191,
      "takımı": 8192,
      "kayı": 8193,
      "alır": 8194,
      "yaşında": 8195,
      "ilmektedir": 8196,
      "ifade": 8197,
      "nek": 8198,
      "kav": 8199,
      "tarihi": 8200,
      "Per": 8201,
      "Roma": 8202,
      "İz": 8203,
      "şark": 8204,
      "Gür": 8205,
      "toprak": 8206,
      "don": 8207,
      "okul": 8208,
      "ettiği": 8209,
      "co": 8210,
      "özellikle": 8211,
      "beş": 8212,
      "Wil": 8213,
      "kuş": 8214,
      "Rusya": 8215,
      "Top": 8216,
      "sonunda": 8217,
      "ner": 8218,
      "bilinen": 8219,
      "yarı": 8220,
      "2005": 8221,
      "kullanılan": 8222,
      "pat": 8223,
      "Car": 8224,
      "fik": 8225,
      "Yah": 8226,
      "arasındaki": 8227,
      "2017": 8228,
      "nes": 8229,
      "Doğu": 8230,
      "verdi": 8231,
      "İspan": 8232,
      "ork": 8233,
      "sınıf": 8234,
      "Be": 8235,
      "sem": 8236,
      "Mal": 8237,
      "gelir": 8238,
      "yönetim": 8239,
      "işim": 8240,
      "lüm": 8241,
      "keş": 8242,
      "2018": 8243,
      "Cumhuriyeti": 8244,
      "karde": 8245,
      "ğinde": 8246,
      "larak": 8247,
      "katıldı": 8248,
      "lendi": 8249,
      "bağlan": 8250,
      "asyonu": 8251,
      "yanı": 8252,
      "landa": 8253,
      "İk": 8254,
      "2000": 8255,
      "yapan": 8256,
      "anlat": 8257,
      "qu": 8258,
      "tesi": 8259,
      "yapım": 8260,
      "oluşan": 8261,
      "Tan": 8262,
      "imz": 8263,
      "tip": 8264,
      "bek": 8265,
      "şirket": 8266,
      "birkaç": 8267,
      "başkanı": 8268,
      "Böl": 8269,
      "Ko": 8270,
      "umlu": 8271,
      "cısı": 8272,
      "değişik": 8273,
      "hakkında": 8274,
      "beraber": 8275,
      "..": 8276,
      "trans": 8277,
      "ly": 8278,
      "otor": 8279,
      "ize": 8280,
      "ug": 8281,
      "çap": 8282,
      "yu": 8283,
      "organ": 8284,
      "ımsız": 8285,
      "Re": 8286,
      "Kupası": 8287,
      "ami": 8288,
      "müca": 8289,
      "Birliği": 8290,
      "Kad": 8291,
      "nit": 8292,
      "çıkan": 8293,
      "mahalledir": 8294,
      "gem": 8295,
      "erkek": 8296,
      "Mac": 8297,
      "ond": 8298,
      "konuş": 8299,
      "sezonunda": 8300,
      "kin": 8301,
      "ation": 8302,
      "çalı": 8303,
      "Şarkı": 8304,
      "def": 8305,
      "Ah": 8306,
      "kariyer": 8307,
      "özellik": 8308,
      "Merkez": 8309,
      "2020": 8310,
      "esinden": 8311,
      "lerdir": 8312,
      "elerin": 8313,
      "ûmet": 8314,
      "Hav": 8315,
      "iydi": 8316,
      "ıp": 8317,
      "Ali": 8318,
      "ılığı": 8319,
      "almaktadır": 8320,
      "Aynı": 8321,
      "ime": 8322,
      "gazet": 8323,
      "evizyon": 8324,
      "Sh": 8325,
      ".\"": 8326,
      "yapmıştır": 8327,
      "günümüz": 8328,
      "esel": 8329,
      "ekonom": 8330,
      "tere": 8331,
      "Su": 8332,
      "öğr": 8333,
      "Bul": 8334,
      "sik": 8335,
      "Sel": 8336,
      "Paşa": 8337,
      "int": 8338,
      "mar": 8339,
      "vur": 8340,
      "2004": 8341,
      "itibaren": 8342,
      "iyan": 8343,
      "best": 8344,
      "Bun": 8345,
      "umu": 8346,
      "ıcı": 8347,
      "2019": 8348,
      "tanın": 8349,
      "Orta": 8350,
      "yasa": 8351,
      "çiz": 8352,
      "edilir": 8353,
      "tanı": 8354,
      "urt": 8355,
      "kalan": 8356,
      "yordu": 8357,
      "yolu": 8358,
      "maları": 8359,
      "merkezine": 8360,
      "üler": 8361,
      "yapıl": 8362,
      "kitap": 8363,
      "elem": 8364,
      "fesyon": 8365,
      "biç": 8366,
      "eyen": 8367,
      "kaldı": 8368,
      "Ma": 8369,
      "dele": 8370,
      "kuvvet": 8371,
      "fesyonel": 8372,
      "\"'": 8373,
      "genç": 8374,
      "Oyun": 8375,
      "190": 8376,
      "azi": 8377,
      "tin": 8378,
      "ulan": 8379,
      "Amerikalı": 8380,
      "kontrol": 8381,
      "sonucu": 8382,
      "Tak": 8383,
      "Rom": 8384,
      "Sal": 8385,
      "ekli": 8386,
      "raki": 8387,
      "red": 8388,
      "sıra": 8389,
      "Ordu": 8390,
      "FA": 8391,
      "azar": 8392,
      "ani": 8393,
      "olmayan": 8394,
      "döneminde": 8395,
      "Deniz": 8396,
      "olojik": 8397,
      "hüküm": 8398,
      "gür": 8399,
      "attı": 8400,
      "İtalya": 8401,
      "iyordu": 8402,
      "40": 8403,
      "Arap": 8404,
      "adlandır": 8405,
      "100": 8406,
      "görüş": 8407,
      "Kı": 8408,
      "sağlam": 8409,
      "kitab": 8410,
      "adını": 8411,
      "Ben": 8412,
      "John": 8413,
      "dayan": 8414,
      "mat": 8415,
      "verilen": 8416,
      "dışında": 8417,
      "De": 8418,
      "dolayı": 8419,
      "ediye": 8420,
      "İngiltere": 8421,
      "num": 8422,
      "Kır": 8423,
      "ell": 8424,
      "Ör": 8425,
      "stan": 8426,
      "rist": 8427,
      "Anad": 8428,
      "Sul": 8429,
      "sol": 8430,
      "amacı": 8431,
      "asıl": 8432,
      "filmi": 8433,
      "işlem": 8434,
      "arkadaş": 8435,
      "aşam": 8436,
      "Sam": 8437,
      "güven": 8438,
      "Devletleri": 8439,
      "hangi": 8440,
      "şey": 8441,
      "şekl": 8442,
      "ire": 8443,
      "pop": 8444,
      "ht": 8445,
      "31": 8446,
      "çağ": 8447,
      "bunun": 8448,
      "tık": 8449,
      "İş": 8450,
      "Sa": 8451,
      "iddi": 8452,
      "bes": 8453,
      "ema": 8454,
      "asıyla": 8455,
      "eleştir": 8456,
      "uma": 8457,
      "Anadolu": 8458,
      "uan": 8459,
      "liğini": 8460,
      "Ev": 8461,
      "La": 8462,
      "cağı": 8463,
      "ost": 8464,
      "üyesi": 8465,
      "ob": 8466,
      "Sar": 8467,
      "teş": 8468,
      "sürdür": 8469,
      "On": 8470,
      "Kız": 8471,
      "dana": 8472,
      "saat": 8473,
      "Bab": 8474,
      "kam": 8475,
      "itibarıyla": 8476,
      "ayet": 8477,
      "büy": 8478,
      "GC": 8479,
      "akül": 8480,
      "sak": 8481,
      "lanmış": 8482,
      "bütün": 8483,
      "eral": 8484,
      "ograf": 8485,
      "land": 8486,
      "poz": 8487,
      "Batı": 8488,
      "kayıt": 8489,
      "ünlü": 8490,
      "cut": 8491,
      "istik": 8492,
      "aldığı": 8493,
      "Bal": 8494,
      "bey": 8495,
      "kariyeri": 8496,
      "Th": 8497,
      "ord": 8498,
      "doğu": 8499,
      "Mon": 8500,
      "Partisi": 8501,
      "abile": 8502,
      "veç": 8503,
      "cih": 8504,
      "dönemde": 8505,
      "manın": 8506,
      "bağımsız": 8507,
      "ısır": 8508,
      "Eur": 8509,
      "Yer": 8510,
      "sim": 8511,
      "Bay": 8512,
      "çalıştı": 8513,
      "leriyle": 8514,
      "60": 8515,
      "Aş": 8516,
      "model": 8517,
      "Sur": 8518,
      "kut": 8519,
      "rim": 8520,
      "çift": 8521,
      "mıştı": 8522,
      "ker": 8523,
      "yoğun": 8524,
      "Meh": 8525,
      "pit": 8526,
      "birbir": 8527,
      "ku": 8528,
      "benzer": 8529,
      "aliyet": 8530,
      "teknik": 8531,
      "fakat": 8532,
      "les": 8533,
      "lig": 8534,
      "yıllarında": 8535,
      "\"),": 8536,
      "lanır": 8537,
      "Ligi": 8538,
      "2002": 8539,
      "kli": 8540,
      "Bakan": 8541,
      "silah": 8542,
      "ülkeler": 8543,
      "evi": 8544,
      "leyen": 8545,
      "ebilir": 8546,
      "batı": 8547,
      "ilere": 8548,
      "Por": 8549,
      "neğin": 8550,
      "rika": 8551,
      "meler": 8552,
      "mon": 8553,
      "televizyon": 8554,
      "koy": 8555,
      "Biz": 8556,
      "Mic": 8557,
      "iya": 8558,
      "kullanılır": 8559,
      "sosyal": 8560,
      "kulüb": 8561,
      "müş": 8562,
      "mada": 8563,
      "NGC": 8564,
      "isimli": 8565,
      "lüğ": 8566,
      "Yıl": 8567,
      "nden": 8568,
      "babası": 8569,
      "faaliyet": 8570,
      "üçüncü": 8571,
      "ştu": 8572,
      "yaygın": 8573,
      "lek": 8574,
      "geçti": 8575,
      "Has": 8576,
      "aday": 8577,
      "biçim": 8578,
      "suz": 8579,
      "oyunc": 8580,
      "veren": 8581,
      "Pet": 8582,
      "keşf": 8583,
      "savun": 8584,
      "suç": 8585,
      "yaset": 8586,
      "transfer": 8587,
      "Kol": 8588,
      "grubu": 8589,
      "mut": 8590,
      "öldü": 8591,
      "larıyla": 8592,
      "his": 8593,
      "1990": 8594,
      "udi": 8595,
      "anya": 8596,
      "ayar": 8597,
      "Alt": 8598,
      "ayında": 8599,
      "çöz": 8600,
      "göç": 8601,
      "2003": 8602,
      "rin": 8603,
      "şta": 8604,
      "atör": 8605,
      "bölgeler": 8606,
      "ici": 8607,
      "tral": 8608,
      "Azer": 8609,
      "uygulam": 8610,
      "mit": 8611,
      "2001": 8612,
      "çoğu": 8613,
      "vil": 8614,
      "lığını": 8615,
      "esiyle": 8616,
      "dern": 8617,
      "burada": 8618,
      "İran": 8619,
      "mevcut": 8620,
      "Şeh": 8621,
      "üldü": 8622,
      "İmparatorluğu": 8623,
      "bal": 8624,
      "sayım": 8625,
      "sey": 8626,
      "iliği": 8627,
      "öylece": 8628,
      "ümü": 8629,
      "yöntem": 8630,
      "nız": 8631,
      "albümü": 8632,
      "katıl": 8633,
      "hemen": 8634,
      "Val": 8635,
      "izik": 8636,
      "masının": 8637,
      "hayvan": 8638,
      "part": 8639,
      "alarında": 8640,
      "so": 8641,
      "oper": 8642,
      "yanın": 8643,
      "ürün": 8644,
      "kurulan": 8645,
      "proj": 8646,
      "hükûmet": 8647,
      "dün": 8648,
      "ğine": 8649,
      "yapımı": 8650,
      "And": 8651,
      "forman": 8652,
      "bulundu": 8653,
      "geçen": 8654,
      "madde": 8655,
      "dük": 8656,
      "çar": 8657,
      "doğdu": 8658,
      "köydür": 8659,
      "ayrı": 8660,
      "amaç": 8661,
      "rah": 8662,
      "etik": 8663,
      "politik": 8664,
      "pe": 8665,
      "içerisinde": 8666,
      "boz": 8667,
      "ışık": 8668,
      "ağını": 8669,
      "hüc": 8670,
      "yine": 8671,
      "ortak": 8672,
      "Uluslararası": 8673,
      "ukuk": 8674,
      "Ulusal": 8675,
      "teki": 8676,
      "ayak": 8677,
      "bulunduğu": 8678,
      "futbolcudur": 8679,
      "yağ": 8680,
      "ong": 8681,
      "alanı": 8682,
      "189": 8683,
      "Tra": 8684,
      "Dav": 8685,
      "80": 8686,
      "mücadele": 8687,
      "kral": 8688,
      "formula": 8689,
      "adet": 8690,
      "adık": 8691,
      "baycan": 8692,
      "bakan": 8693,
      "Ge": 8694,
      "io": 8695,
      "formula_": 8696,
      "sonraki": 8697,
      "kenin": 8698,
      "No": 8699,
      "Nor": 8700,
      "fır": 8701,
      "liam": 8702,
      "sk": 8703,
      "Azerbaycan": 8704,
      "Sanat": 8705,
      "Pa": 8706,
      "lisi": 8707,
      "bor": 8708,
      "isti": 8709,
      "sonuc": 8710,
      "kaldır": 8711,
      "toplum": 8712,
      "bask": 8713,
      "Sch": 8714,
      "oynadı": 8715,
      "He": 8716,
      "burg": 8717,
      "vide": 8718,
      "oda": 8719,
      "lenmiştir": 8720,
      "Kaz": 8721,
      "askeri": 8722,
      "ilebilir": 8723,
      "Ödülü": 8724,
      "NA": 8725,
      "dönüş": 8726,
      "biridir": 8727,
      "ett": 8728,
      "İslam": 8729,
      "yılından": 8730,
      "letve": 8731,
      "dam": 8732,
      "uluslararası": 8733,
      "parçası": 8734,
      "Dan": 8735,
      "bert": 8736,
      "endi": 8737,
      "mağ": 8738,
      "fil": 8739,
      "saldırı": 8740,
      "isesi": 8741,
      "Yarış": 8742,
      "ktan": 8743,
      "uldu": 8744,
      "siyaset": 8745,
      "taki": 8746,
      "Mısır": 8747,
      "yıllarda": 8748,
      "yapıldı": 8749,
      "aların": 8750,
      "sezonu": 8751,
      "yaşayan": 8752,
      "York": 8753,
      "fon": 8754,
      "bitir": 8755,
      "Fakül": 8756,
      "hâ": 8757,
      "kuruluş": 8758,
      "Afrika": 8759,
      "Ham": 8760,
      "etmektedir": 8761,
      "Albüm": 8762,
      "Paris": 8763,
      "Ter": 8764,
      "fel": 8765,
      "Uz": 8766,
      "Yük": 8767,
      "hen": 8768,
      "Sen": 8769,
      "izin": 8770,
      "Pr": 8771,
      "br": 8772,
      "sahibi": 8773,
      "Sultan": 8774,
      "etkin": 8775,
      "sistemi": 8776,
      "laştır": 8777,
      "Sır": 8778,
      "TV": 8779,
      "hav": 8780,
      "ite": 8781,
      "imar": 8782,
      "diler": 8783,
      "dikkat": 8784,
      "İngilizce": 8785,
      "İç": 8786,
      "go": 8787,
      "unt": 8788,
      "Fakat": 8789,
      "ilan": 8790,
      "yerel": 8791,
      "turn": 8792,
      "lüğü": 8793,
      "So": 8794,
      "nokt": 8795,
      "ciler": 8796,
      "Mec": 8797,
      "yazı": 8798,
      "may": 8799,
      "konusunda": 8800,
      "Gök": 8801,
      "örnek": 8802,
      "kenti": 8803,
      "Ban": 8804,
      "kâ": 8805,
      "vardı": 8806,
      "do": 8807,
      "güt": 8808,
      "ifor": 8809,
      "iline": 8810,
      "tespit": 8811,
      "girdi": 8812,
      "çoğun": 8813,
      "madan": 8814,
      "rail": 8815,
      "maçta": 8816,
      "ikâ": 8817,
      "aşağı": 8818,
      "imleri": 8819,
      "Se": 8820,
      "lenir": 8821,
      "masından": 8822,
      "yanında": 8823,
      "olabilir": 8824,
      "tival": 8825,
      "edik": 8826,
      "ke": 8827,
      "Diğer": 8828,
      "Yap": 8829,
      "1999": 8830,
      "Mek": 8831,
      "Futbol": 8832,
      "kları": 8833,
      "etmiş": 8834,
      "üper": 8835,
      "Bölg": 8836,
      "düzenlenen": 8837,
      "ism": 8838,
      "187": 8839,
      "derg": 8840,
      "şeklinde": 8841,
      "yıllık": 8842,
      "hes": 8843,
      "Met": 8844,
      "Col": 8845,
      "kir": 8846,
      "Yön": 8847,
      "şehri": 8848,
      "Az": 8849,
      "resmi": 8850,
      "roman": 8851,
      "taydı": 8852,
      "Mat": 8853,
      "ismi": 8854,
      "başarılı": 8855,
      "ue": 8856,
      "Fil": 8857,
      "yalnız": 8858,
      "sıcak": 8859,
      "hava": 8860,
      "po": 8861,
      "Mak": 8862,
      "giz": 8863,
      "Ha": 8864,
      "lemek": 8865,
      "Ed": 8866,
      "yem": 8867,
      "teor": 8868,
      "sayıda": 8869,
      "1980": 8870,
      "yatro": 8871,
      "lav": 8872,
      "herhangi": 8873,
      "oynam": 8874,
      "lor": 8875,
      "masıyla": 8876,
      "uygun": 8877,
      "küt": 8878,
      "başarı": 8879,
      "kulüp": 8880,
      "performan": 8881,
      "ilerek": 8882,
      "Eğ": 8883,
      "Fer": 8884,
      "dek": 8885,
      "Kür": 8886,
      "ederek": 8887,
      "yönetmen": 8888,
      "esidir": 8889,
      "Em": 8890,
      "mesine": 8891,
      "Bizans": 8892,
      "mah": 8893,
      "baz": 8894,
      "Şehir": 8895,
      "motor": 8896,
      "Müs": 8897,
      "zar": 8898,
      "Doğ": 8899,
      "und": 8900,
      "başlayan": 8901,
      "iri": 8902,
      "imler": 8903,
      "İsrail": 8904,
      "Ad": 8905,
      "izi": 8906,
      "türü": 8907,
      "Ön": 8908,
      "masında": 8909,
      "edilmiş": 8910,
      "kür": 8911,
      "İyi": 8912,
      "cm": 8913,
      "haline": 8914,
      "Ger": 8915,
      "biy": 8916,
      "işti": 8917,
      "asit": 8918,
      "giriş": 8919,
      "cer": 8920,
      "oldukça": 8921,
      "Olim": 8922,
      "ceği": 8923,
      "langı": 8924,
      "forma": 8925,
      "siyasi": 8926,
      "Don": 8927,
      "mekt": 8928,
      "Japon": 8929,
      "teh": 8930,
      "iken": 8931,
      "üretim": 8932,
      "gerçekleş": 8933,
      "başına": 8934,
      "makta": 8935,
      "zem": 8936,
      "str": 8937,
      "ders": 8938,
      "amaya": 8939,
      "Go": 8940,
      "ısını": 8941,
      "ph": 8942,
      "araç": 8943,
      "altın": 8944,
      "yürüt": 8945,
      "omo": 8946,
      "yılına": 8947,
      "bildir": 8948,
      "Ku": 8949,
      "pay": 8950,
      "ale": 8951,
      "köken": 8952,
      "tez": 8953,
      "Şampiyonası": 8954,
      "sanatçı": 8955,
      "ceki": 8956,
      "sh": 8957,
      "ff": 8958,
      "yasal": 8959,
      "anlamına": 8960,
      "pen": 8961,
      "1998": 8962,
      "engel": 8963,
      "Genç": 8964,
      "ila": 8965,
      "Yay": 8966,
      "1992": 8967,
      "Aka": 8968,
      "inç": 8969,
      "Mad": 8970,
      "uyar": 8971,
      "Kara": 8972,
      "35": 8973,
      "günü": 8974,
      "Beş": 8975,
      "mezun": 8976,
      "ilerini": 8977,
      "tein": 8978,
      "hiçbir": 8979,
      "ısıyla": 8980,
      "alam": 8981,
      "Kö": 8982,
      "dizi": 8983,
      "bölgesinde": 8984,
      "ısına": 8985,
      "başlamıştır": 8986,
      "Lo": 8987,
      "yık": 8988,
      "Mor": 8989,
      "lah": 8990,
      "sur": 8991,
      "kın": 8992,
      "İtalyan": 8993,
      "atış": 8994,
      "piyat": 8995,
      "nam": 8996,
      "ick": 8997,
      "tart": 8998,
      "are": 8999,
      "Cen": 9000,
      "ision": 9001,
      "iversit": 9002,
      "piyasa": 9003,
      "omet": 9004,
      "ali": 9005,
      "Kil": 9006,
      "MÖ": 9007,
      "mesini": 9008,
      "geçer": 9009,
      "Mü": 9010,
      "no": 9011,
      "dair": 9012,
      "cel": 9013,
      "tiya": 9014,
      "yüzyılda": 9015,
      "cez": 9016,
      "üniversit": 9017,
      "adam": 9018,
      "metre": 9019,
      "188": 9020,
      "gider": 9021,
      "Eski": 9022,
      "hend": 9023,
      "ünkü": 9024,
      "gez": 9025,
      "taşın": 9026,
      "ğın": 9027,
      "çu": 9028,
      "ack": 9029,
      "anlı": 9030,
      "İspanya": 9031,
      "ılmaktadır": 9032,
      "İb": 9033,
      "meyi": 9034,
      "ülke": 9035,
      "gelenek": 9036,
      "boş": 9037,
      "ras": 9038,
      "ehri": 9039,
      "değildir": 9040,
      "sonucunda": 9041,
      "Bazı": 9042,
      "test": 9043,
      "üd": 9044,
      "tern": 9045,
      "Et": 9046,
      "başında": 9047,
      "sorun": 9048,
      "Kadın": 9049,
      "kili": 9050,
      "işgal": 9051,
      "bugün": 9052,
      "ladığı": 9053,
      "Fakültesi": 9054,
      "şim": 9055,
      "güçlü": 9056,
      "amacıyla": 9057,
      "yönünde": 9058,
      "çalışan": 9059,
      "stit": 9060,
      "başlat": 9061,
      "talık": 9062,
      "yana": 9063,
      "Hak": 9064,
      "Com": 9065,
      "şehrin": 9066,
      "elerinin": 9067,
      "doğr": 9068,
      "uyu": 9069,
      "yorum": 9070,
      "tarz": 9071,
      "kale": 9072,
      "asından": 9073,
      "seri": 9074,
      "Kem": 9075,
      "For": 9076,
      "Bakanlığı": 9077,
      "hareb": 9078,
      "başı": 9079,
      "lider": 9080,
      "1996": 9081,
      "işleri": 9082,
      "yatı": 9083,
      "hale": 9084,
      "yani": 9085,
      "belediy": 9086,
      "araya": 9087,
      "verildi": 9088,
      "laya": 9089,
      "yerleşim": 9090,
      "isidir": 9091,
      "Kit": 9092,
      "Yaz": 9093,
      "bon": 9094,
      "ayır": 9095,
      "1995": 9096,
      "Japonya": 9097,
      "1991": 9098,
      "mız": 9099,
      "ısından": 9100,
      "İkinci": 9101,
      "tekn": 9102,
      "elerinde": 9103,
      "1994": 9104,
      "III": 9105,
      "bilgi": 9106,
      "Kızıl": 9107,
      "1993": 9108,
      "pozisyon": 9109,
      "İzmir": 9110,
      "Te": 9111,
      "Yüksek": 9112,
      "ier": 9113,
      "soy": 9114,
      "fak": 9115,
      "sp": 9116,
      "karşılaş": 9117,
      "fot": 9118,
      "deney": 9119,
      "üyle": 9120,
      "1997": 9121,
      "Sin": 9122,
      "ilmek": 9123,
      "Ho": 9124,
      "düşük": 9125,
      "90": 9126,
      "cılık": 9127,
      "Mas": 9128,
      "seçildi": 9129,
      "Far": 9130,
      "açıklam": 9131,
      "kapsam": 9132,
      "Yak": 9133,
      "taj": 9134,
      "ediği": 9135,
      "zen": 9136,
      "başlar": 9137,
      "45": 9138,
      "Gu": 9139,
      "ülkenin": 9140,
      "galak": 9141,
      "Con": 9142,
      "olmuş": 9143,
      "SS": 9144,
      "Gir": 9145,
      "komu": 9146,
      "Okul": 9147,
      "lüman": 9148,
      "öm": 9149,
      "tartış": 9150,
      "70": 9151,
      "Üç": 9152,
      "Dış": 9153,
      "dağı": 9154,
      "hey": 9155,
      "ie": 9156,
      "haber": 9157,
      "sonrasında": 9158,
      "Char": 9159,
      "Avustur": 9160,
      "meni": 9161,
      "ows": 9162,
      "üzel": 9163,
      "canlandır": 9164,
      "İki": 9165,
      "ndan": 9166,
      "Ef": 9167,
      "iforni": 9168,
      "konum": 9169,
      "madı": 9170,
      "renk": 9171,
      "indir": 9172,
      "etbol": 9173,
      "isayar": 9174,
      "alarda": 9175,
      "1970": 9176,
      "İlç": 9177,
      "kah": 9178,
      "koş": 9179,
      "hap": 9180,
      "puan": 9181,
      "ilet": 9182,
      "demir": 9183,
      "beyaz": 9184,
      "Hat": 9185,
      "kamp": 9186,
      "meydana": 9187,
      "one": 9188,
      "Halk": 9189,
      "verir": 9190,
      "emen": 9191,
      "yarat": 9192,
      "bölgede": 9193,
      "önceki": 9194,
      "yayınlandı": 9195,
      "Musta": 9196,
      "elerde": 9197,
      "Bat": 9198,
      "hast": 9199,
      "oran": 9200,
      "yayınlanan": 9201,
      "araştırma": 9202,
      "müzi": 9203,
      "Olimpiyat": 9204,
      "imparator": 9205,
      "seslendir": 9206,
      "profesyonel": 9207,
      "Gör": 9208,
      "sefer": 9209,
      "kardeşi": 9210,
      "sidir": 9211,
      "Yüz": 9212,
      "sayısı": 9213,
      "Cor": 9214,
      "hafta": 9215,
      "dın": 9216,
      "lilik": 9217,
      "ceğini": 9218,
      "Bölüm": 9219,
      "ilerine": 9220,
      "atif": 9221,
      "Can": 9222,
      "Kanada": 9223,
      "bunu": 9224,
      "Ver": 9225,
      "diye": 9226,
      "layı": 9227,
      "fizik": 9228,
      "Hrist": 9229,
      "William": 9230,
      "Brit": 9231,
      "Bulgar": 9232,
      "jen": 9233,
      "mî": 9234,
      "ilya": 9235,
      "sona": 9236,
      "modern": 9237,
      "gördü": 9238,
      "Mur": 9239,
      "tamamen": 9240,
      "stat": 9241,
      "Gaz": 9242,
      "ity": 9243,
      "döndü": 9244,
      "Kay": 9245,
      "ino": 9246,
      "Lond": 9247,
      "biyat": 9248,
      "lığına": 9249,
      "ıntı": 9250,
      "BA": 9251,
      "leşme": 9252,
      "Gru": 9253,
      "zorunda": 9254,
      "Müzik": 9255,
      "Sosyal": 9256,
      "ştü": 9257,
      "Asya": 9258,
      "bilinir": 9259,
      "fe": 9260,
      "ziy": 9261,
      "kasab": 9262,
      "Bor": 9263,
      "sahn": 9264,
      "olacak": 9265,
      "Hollanda": 9266,
      "Grup": 9267,
      "ülen": 9268,
      "devr": 9269,
      "Ven": 9270,
      "elektrik": 9271,
      "leşti": 9272,
      "lev": 9273,
      "au": 9274,
      "Londra": 9275,
      "liğinde": 9276,
      "içeren": 9277,
      "47": 9278,
      "açı": 9279,
      "direktör": 9280,
      "üzerinden": 9281,
      "şarkıcı": 9282,
      "Avustral": 9283,
      "fab": 9284,
      "lidir": 9285,
      "ıldığı": 9286,
      "miktar": 9287,
      "vat": 9288,
      "ortal": 9289,
      "kelim": 9290,
      "sebeb": 9291,
      "kısm": 9292,
      "lardı": 9293,
      "1960": 9294,
      "piyasaya": 9295,
      "erken": 9296,
      "ateş": 9297,
      "Spor": 9298,
      "Galat": 9299,
      "Tel": 9300,
      "eth": 9301,
      "kurulmuştur": 9302,
      "nor": 9303,
      "Kap": 9304,
      "Müslüman": 9305,
      "ung": 9306,
      "iddia": 9307,
      "kurdu": 9308,
      "hendis": 9309,
      "kuruldu": 9310,
      "nedenle": 9311,
      "malı": 9312,
      "İsveç": 9313,
      "ınca": 9314,
      "kanal": 9315,
      "Hristiyan": 9316,
      "astr": 9317,
      "göl": 9318,
      "hane": 9319,
      "alarak": 9320,
      "33": 9321,
      "hikâ": 9322,
      "gr": 9323,
      "etme": 9324,
      "sebep": 9325,
      "Sc": 9326,
      "Dr": 9327,
      "||": 9328,
      "meden": 9329,
      "Pat": 9330,
      "boyut": 9331,
      "doğal": 9332,
      "Tüm": 9333,
      "Macar": 9334,
      "FC": 9335,
      "ulusal": 9336,
      "Göl": 9337,
      "hedef": 9338,
      "alış": 9339,
      "Kr": 9340,
      "Me": 9341,
      "madal": 9342,
      "oluşur": 9343,
      "kısmı": 9344,
      "sing": 9345,
      "kızı": 9346,
      "çak": 9347,
      "Kariy": 9348,
      "maktaydı": 9349,
      "Başkanı": 9350,
      "kavram": 9351,
      "serbest": 9352,
      "iyeti": 9353,
      "ilçe": 9354,
      "elerini": 9355,
      "Dağ": 9356,
      "kurum": 9357,
      "benz": 9358,
      "stüd": 9359,
      "bahçe": 9360,
      "oku": 9361,
      "üle": 9362,
      "FI": 9363,
      "Feder": 9364,
      "Geor": 9365,
      "eğit": 9366,
      "ekonomik": 9367,
      "şiir": 9368,
      "th": 9369,
      "yalnızca": 9370,
      "kariyerine": 9371,
      "Lu": 9372,
      "Mehmet": 9373,
      "söyledi": 9374,
      "ısının": 9375,
      "ğe": 9376,
      "aşır": 9377,
      "lanması": 9378,
      "Mustafa": 9379,
      "yaban": 9380,
      "etmeye": 9381,
      "seviy": 9382,
      "öner": 9383,
      "adır": 9384,
      "ekip": 9385,
      "Dönem": 9386,
      "çalışmaları": 9387,
      "tas": 9388,
      "çarp": 9389,
      "ğa": 9390,
      "yör": 9391,
      "ital": 9392,
      "sine": 9393,
      "Kaliforni": 9394,
      "Krallık": 9395,
      "1989": 9396,
      "milletve": 9397,
      "tiği": 9398,
      "64": 9399,
      "lenmiş": 9400,
      "Kaliforniya": 9401,
      "arac": 9402,
      "Wind": 9403,
      "birinci": 9404,
      "yapmış": 9405,
      "Nehri": 9406,
      "siyonu": 9407,
      "yken": 9408,
      "olog": 9409,
      "karı": 9410,
      "Nüf": 9411,
      "kolay": 9412,
      "bölge": 9413,
      "eyaletinde": 9414,
      "wa": 9415,
      "Türkçe": 9416,
      "video": 9417,
      "olmasına": 9418,
      "tekiz": 9419,
      "Jos": 9420,
      "Ni": 9421,
      "ziyaret": 9422,
      "kendisine": 9423,
      "isel": 9424,
      "Portekiz": 9425,
      "To": 9426,
      "maçında": 9427,
      "cılar": 9428,
      "Altın": 9429,
      "Hen": 9430,
      "Demir": 9431,
      "konser": 9432,
      "defa": 9433,
      "ang": 9434,
      "Eurov": 9435,
      "Bağ": 9436,
      "Bro": 9437,
      "Ül": 9438,
      "Sil": 9439,
      "gözlem": 9440,
      "Lat": 9441,
      "yardımcı": 9442,
      "Mos": 9443,
      "sonrası": 9444,
      "BM": 9445,
      "düzey": 9446,
      "eşil": 9447,
      "layarak": 9448,
      "Örneğin": 9449,
      "birliği": 9450,
      "Burada": 9451,
      "ılarak": 9452,
      "Tr": 9453,
      "vir": 9454,
      "kaya": 9455,
      "derec": 9456,
      "cisi": 9457,
      "Kuvvet": 9458,
      "Ok": 9459,
      "yeter": 9460,
      "za": 9461,
      "Suriye": 9462,
      "hızlı": 9463,
      "ub": 9464,
      "tük": 9465,
      "tav": 9466,
      "ilerinin": 9467,
      "ej": 9468,
      "Eurovision": 9469,
      "kün": 9470,
      "yıldızı": 9471,
      "Trab": 9472,
      "Avusturya": 9473,
      "tipi": 9474,
      "derece": 9475,
      "Res": 9476,
      "Millî": 9477,
      "kesin": 9478,
      "Bas": 9479,
      "acağı": 9480,
      "ülü": 9481,
      "yazarı": 9482,
      "alarını": 9483,
      "Mes": 9484,
      "kek": 9485,
      "eydi": 9486,
      "tığı": 9487,
      "katkı": 9488,
      "yayıl": 9489,
      "Günümüz": 9490,
      "Ste": 9491,
      "Angel": 9492,
      "Fener": 9493,
      "davran": 9494,
      "ira": 9495,
      "tul": 9496,
      "eği": 9497,
      "Yaşam": 9498,
      "pet": 9499,
      "işi": 9500,
      "cil": 9501,
      "yapar": 9502,
      "uğr": 9503,
      "Yahudi": 9504,
      "olar": 9505,
      "itler": 9506,
      "Müdür": 9507,
      "Kam": 9508,
      "Parti": 9509,
      "mızı": 9510,
      "Gel": 9511,
      "dünyanın": 9512,
      "Bah": 9513,
      "Art": 9514,
      "bilgisayar": 9515,
      "verdiği": 9516,
      "tekli": 9517,
      "uygulan": 9518,
      "raman": 9519,
      "manı": 9520,
      "isyen": 9521,
      "altına": 9522,
      "günümüzde": 9523,
      "duyur": 9524,
      "Belediy": 9525,
      "Buna": 9526,
      "ılabilir": 9527,
      "lamak": 9528,
      "birleş": 9529,
      "turnuv": 9530,
      "vatan": 9531,
      "Vol": 9532,
      "Sovyetler": 9533,
      "kullanım": 9534,
      "şarkısı": 9535,
      "sayımına": 9536,
      "ers": 9537,
      "yüzyılın": 9538,
      "öv": 9539,
      "ordusu": 9540,
      "olsa": 9541,
      "bölümü": 9542,
      "örgüt": 9543,
      "senar": 9544,
      "yn": 9545,
      "yav": 9546,
      "örd": 9547,
      "öğretim": 9548,
      "İr": 9549,
      "başkenti": 9550,
      "neği": 9551,
      "tat": 9552,
      "anal": 9553,
      "Fes": 9554,
      "asaray": 9555,
      "başlangı": 9556,
      "Rum": 9557,
      "akar": 9558,
      "bet": 9559,
      "edilmektedir": 9560,
      "ematik": 9561,
      "1988": 9562,
      "fir": 9563,
      "maçı": 9564,
      "zon": 9565,
      "Galatasaray": 9566,
      "kardeş": 9567,
      "Merkezi": 9568,
      "opol": 9569,
      "Rad": 9570,
      "tanıt": 9571,
      "Sp": 9572,
      "muh": 9573,
      "lasik": 9574,
      "Hay": 9575,
      "popüler": 9576,
      "uçak": 9577,
      "yapılmıştır": 9578,
      "çıkış": 9579,
      "Ken": 9580,
      "siy": 9581,
      "ihtiya": 9582,
      "mel": 9583,
      "ternet": 9584,
      "Haya": 9585,
      "ğinden": 9586,
      "all": 9587,
      "alarının": 9588,
      "sunu": 9589,
      "değerlendir": 9590,
      "Çağ": 9591,
      "satın": 9592,
      "hep": 9593,
      "toplan": 9594,
      "komün": 9595,
      "olmadı": 9596,
      "Yahud": 9597,
      "yazdı": 9598,
      "kaf": 9599,
      "Windows": 9600,
      "berg": 9601,
      "alanında": 9602,
      "buna": 9603,
      "Yunanistan": 9604,
      "alındı": 9605,
      "içi": 9606,
      "Gran": 9607,
      "çevir": 9608,
      "galaksidir": 9609,
      "adına": 9610,
      "ortam": 9611,
      "Avustralya": 9612,
      "Ol": 9613,
      "satış": 9614,
      "tasarım": 9615,
      "Is": 9616,
      "tiyatro": 9617,
      "ölçü": 9618,
      "ıyor": 9619,
      "ördüncü": 9620,
      "izasyon": 9621,
      "Cem": 9622,
      "Van": 9623,
      "jinal": 9624,
      "şid": 9625,
      "vas": 9626,
      "tepe": 9627,
      "Şah": 9628,
      "takip": 9629,
      "rid": 9630,
      "Festival": 9631,
      "bağlantı": 9632,
      "Kıbr": 9633,
      "elere": 9634,
      "yeri": 9635,
      "Polonya": 9636,
      "doğan": 9637,
      "karşısında": 9638,
      "doktor": 9639,
      "aktif": 9640,
      "içerir": 9641,
      "Kıbrıs": 9642,
      "edil": 9643,
      "şehirdir": 9644,
      "enerji": 9645,
      "ill": 9646,
      "ded": 9647,
      "Enstit": 9648,
      "yılının": 9649,
      ")\"": 9650,
      "Hük": 9651,
      "ames": 9652,
      "Kültür": 9653,
      "uluğu": 9654,
      "dönü": 9655,
      "Fenerbahçe": 9656,
      "müm": 9657,
      "ach": 9658,
      "ilim": 9659,
      "Ap": 9660,
      "acağını": 9661,
      "mesiyle": 9662,
      "Tim": 9663,
      "İspanyol": 9664,
      "şun": 9665,
      "1987": 9666,
      "mec": 9667,
      "CO": 9668,
      "65": 9669,
      "Eğitim": 9670,
      "veri": 9671,
      "dikten": 9672,
      "Fin": 9673,
      "ces": 9674,
      "lamıştır": 9675,
      "kötü": 9676,
      "küm": 9677,
      "ano": 9678,
      "rens": 9679,
      "mişti": 9680,
      "oyunu": 9681,
      "sch": 9682,
      "Tor": 9683,
      "ağaç": 9684,
      "belediye": 9685,
      "Count": 9686,
      "Yarışması": 9687,
      "lukla": 9688,
      "Süper": 9689,
      "yönelik": 9690,
      "yeten": 9691,
      "çatış": 9692,
      "Final": 9693,
      "parti": 9694,
      "urum": 9695,
      "1986": 9696,
      "deri": 9697,
      "Men": 9698,
      "ısız": 9699,
      "şar": 9700,
      "vel": 9701,
      "astronom": 9702,
      "yoktur": 9703,
      "çuk": 9704,
      "oks": 9705,
      "lılık": 9706,
      "tarihli": 9707,
      "kazanan": 9708,
      "48": 9709,
      "Kore": 9710,
      "grubun": 9711,
      "Demok": 9712,
      "siyasetçi": 9713,
      "Ermeni": 9714,
      "emi": 9715,
      "sayesinde": 9716,
      "32": 9717,
      "metal": 9718,
      "canlı": 9719,
      "ayrıldı": 9720,
      "birey": 9721,
      "yurt": 9722,
      "Bos": 9723,
      "ati": 9724,
      "civar": 9725,
      "cinsel": 9726,
      "artık": 9727,
      "gul": 9728,
      "üye": 9729,
      "tiv": 9730,
      "şirketi": 9731,
      "dünyaya": 9732,
      "İnsan": 9733,
      "Sim": 9734,
      "Tay": 9735,
      "single": 9736,
      "Je": 9737,
      "Mel": 9738,
      "felse": 9739,
      "sinema": 9740,
      "ırlar": 9741,
      "mümkün": 9742,
      "hesap": 9743,
      "ata": 9744,
      "etin": 9745,
      "SA": 9746,
      "Tun": 9747,
      "Mc": 9748,
      "Çek": 9749,
      "37": 9750,
      "Kah": 9751,
      "ğına": 9752,
      "Beyaz": 9753,
      "nu": 9754,
      "Muham": 9755,
      "Min": 9756,
      "yüzey": 9757,
      "indistan": 9758,
      "kurtar": 9759,
      "mekan": 9760,
      "cam": 9761,
      "mekte": 9762,
      "tren": 9763,
      "Ale": 9764,
      "halinde": 9765,
      "sü": 9766,
      "esir": 9767,
      "dart": 9768,
      "Geç": 9769,
      "Do": 9770,
      "orman": 9771,
      "kendini": 9772,
      "hid": 9773,
      "uvar": 9774,
      "Hayatı": 9775,
      "Brez": 9776,
      "Ot": 9777,
      "doğusunda": 9778,
      "Dar": 9779,
      "para": 9780,
      "Trabzon": 9781,
      "değişiklik": 9782,
      "gösterir": 9783,
      "Kulüp": 9784,
      "Dok": 9785,
      "numar": 9786,
      "Say": 9787,
      "ümüş": 9788,
      "nav": 9789,
      "âr": 9790,
      "Erz": 9791,
      "Ölüm": 9792,
      "geçmiş": 9793,
      "karşılık": 9794,
      "liğe": 9795,
      "ood": 9796,
      "vatandaş": 9797,
      "üstü": 9798,
      "lov": 9799,
      "eph": 9800,
      "ze": 9801,
      "County": 9802,
      "tion": 9803,
      "viç": 9804,
      "fotoğraf": 9805,
      "Gi": 9806,
      "Akadem": 9807,
      "Ödülleri": 9808,
      "nak": 9809,
      "ate": 9810,
      "alog": 9811,
      "Hindistan": 9812,
      "1984": 9813,
      "yapmak": 9814,
      "ticaret": 9815,
      "zengin": 9816,
      "uzay": 9817,
      "ettir": 9818,
      "normal": 9819,
      "üzerindeki": 9820,
      "kişinin": 9821,
      "Mez": 9822,
      "vak": 9823,
      "Samsun": 9824,
      "sekiz": 9825,
      "kış": 9826,
      "36": 9827,
      "Böylece": 9828,
      "1950": 9829,
      "duvar": 9830,
      "larındaki": 9831,
      "imini": 9832,
      "geleneksel": 9833,
      "kazanmıştır": 9834,
      "tarım": 9835,
      "ildiği": 9836,
      "gelmiştir": 9837,
      "yazdığı": 9838,
      "34": 9839,
      "alığı": 9840,
      "esindeki": 9841,
      "Köyün": 9842,
      "500": 9843,
      "ğunu": 9844,
      "performans": 9845,
      "cumhur": 9846,
      "konusu": 9847,
      "hit": 9848,
      "Kim": 9849,
      "resmî": 9850,
      "tahmin": 9851,
      "elerine": 9852,
      "Ra": 9853,
      "1985": 9854,
      "Bununla": 9855,
      "1982": 9856,
      "Ek": 9857,
      "Ahmet": 9858,
      "Pal": 9859,
      "mimar": 9860,
      "meyen": 9861,
      "Hava": 9862,
      "çünkü": 9863,
      "mahalle": 9864,
      "sahne": 9865,
      "UE": 9866,
      "belirli": 9867,
      "idari": 9868,
      "sul": 9869,
      "hip": 9870,
      "hael": 9871,
      "Sü": 9872,
      "ansı": 9873,
      "elektron": 9874,
      "kum": 9875,
      "ves": 9876,
      "ore": 9877,
      "kullanıcı": 9878,
      "aşık": 9879,
      "bahs": 9880,
      "karşıla": 9881,
      "hard": 9882,
      "car": 9883,
      "eşi": 9884,
      "adında": 9885,
      "Şehrin": 9886,
      "Ermen": 9887,
      "Devleti": 9888,
      "sürekli": 9889,
      "yüzünde": 9890,
      "Küçük": 9891,
      "Pas": 9892,
      "ografi": 9893,
      "hukuk": 9894,
      "Pan": 9895,
      "stüdyo": 9896,
      "oynanan": 9897,
      "ney": 9898,
      "aden": 9899,
      "lıkla": 9900,
      "kurulmuş": 9901,
      "alarına": 9902,
      "Paul": 9903,
      "amam": 9904,
      "soğ": 9905,
      "taşıyan": 9906,
      "Sah": 9907,
      "Gü": 9908,
      "çalışma": 9909,
      "mark": 9910,
      "kitabı": 9911,
      "durumda": 9912,
      "ash": 9913,
      "tane": 9914,
      "lığa": 9915,
      "kiler": 9916,
      "38": 9917,
      "Ros": 9918,
      "(),": 9919,
      "Seç": 9920,
      "off": 9921,
      "ins": 9922,
      "diren": 9923,
      "listesi": 9924,
      "medi": 9925,
      "yerleştir": 9926,
      "diya": 9927,
      "çıkmıştır": 9928,
      "ınar": 9929,
      "süreç": 9930,
      "Irak": 9931,
      "Erkek": 9932,
      "almış": 9933,
      "dis": 9934,
      "ırken": 9935,
      "Var": 9936,
      "tutuk": 9937,
      "pazar": 9938,
      "genin": 9939,
      "bl": 9940,
      "aile": 9941,
      "dışı": 9942,
      "\"\"": 9943,
      "etkil": 9944,
      "onları": 9945,
      "kişilik": 9946,
      "ıma": 9947,
      "çoğ": 9948,
      "yanlı": 9949,
      "balık": 9950,
      "Gre": 9951,
      "Qu": 9952,
      "nan": 9953,
      "Çan": 9954,
      "gösteren": 9955,
      "Kemal": 9956,
      "Tarihi": 9957,
      "alara": 9958,
      "ülkede": 9959,
      "culuk": 9960,
      "gun": 9961,
      "basın": 9962,
      "bakım": 9963,
      "lisans": 9964,
      "ındır": 9965,
      "kendisi": 9966,
      "adi": 9967,
      "Muhammed": 9968,
      "Ren": 9969,
      "usal": 9970,
      "dağıt": 9971,
      "öne": 9972,
      "Ant": 9973,
      "kıy": 9974,
      "Berlin": 9975,
      "amil": 9976,
      "sas": 9977,
      "Ukr": 9978,
      "madalya": 9979,
      "fesör": 9980,
      "isinden": 9981,
      "şte": 9982,
      "diş": 9983,
      "Gar": 9984,
      "antik": 9985,
      "UEFA": 9986,
      "dolay": 9987,
      "Sab": 9988,
      "plat": 9989,
      "Uy": 9990,
      "çiler": 9991,
      "Yu": 9992,
      "1983": 9993,
      "ruh": 9994,
      "ester": 9995,
      "görevi": 9996,
      "Özel": 9997,
      "oyuncusu": 9998,
      "yse": 9999,
      "fonk": 10000,
      "ult": 10001,
      "bileş": 10002,
      "Gürcü": 10003,
      "Ukrayn": 10004,
      "katılım": 10005,
      "Tok": 10006,
      "hakim": 10007,
      "açıkladı": 10008,
      "ilçesinde": 10009,
      "Gürc": 10010,
      "yedi": 10011,
      "mayan": 10012,
      "Fo": 10013,
      "buz": 10014,
      "ayi": 10015,
      "başkanlığı": 10016,
      "batısında": 10017,
      "lıklı": 10018,
      "İsviç": 10019,
      "arkadaşı": 10020,
      "Kut": 10021,
      "Michael": 10022,
      "Kurulu": 10023,
      "ita": 10024,
      "düğ": 10025,
      "hücr": 10026,
      "iv": 10027,
      "kullanarak": 10028,
      "amaz": 10029,
      "eliği": 10030,
      "iss": 10031,
      "birleştir": 10032,
      "Başkanlığı": 10033,
      "etraf": 10034,
      "rast": 10035,
      "dönemi": 10036,
      "yapmaktadır": 10037,
      "Gürcistan": 10038,
      "süren": 10039,
      "okal": 10040,
      "Eyal": 10041,
      "Belediye": 10042,
      "dikleri": 10043,
      "lâ": 10044,
      "itesi": 10045,
      "old": 10046,
      "Fat": 10047,
      "terk": 10048,
      "görülür": 10049,
      "Pap": 10050,
      "Gazi": 10051,
      "my": 10052,
      "Profesyonel": 10053,
      "bom": 10054,
      "David": 10055,
      "arab": 10056,
      "gitti": 10057,
      "Kaf": 10058,
      "tarihleri": 10059,
      "hastalık": 10060,
      "Nik": 10061,
      "deste": 10062,
      "tercih": 10063,
      "cihaz": 10064,
      "bölümünde": 10065,
      "eylem": 10066,
      "Muhareb": 10067,
      "lament": 10068,
      "lında": 10069,
      "75": 10070,
      "derin": 10071,
      "Robert": 10072,
      "Millet": 10073,
      "Ba": 10074,
      "doğrudan": 10075,
      "nerede": 10076,
      "hikây": 10077,
      "pil": 10078,
      "Bask": 10079,
      "girişim": 10080,
      "uel": 10081,
      "çab": 10082,
      "liğine": 10083,
      "birim": 10084,
      "Hüs": 10085,
      "oft": 10086,
      "cid": 10087,
      "Harek": 10088,
      "takımyıldızı": 10089,
      "kıyı": 10090,
      "Mark": 10091,
      "je": 10092,
      "Lit": 10093,
      "Tom": 10094,
      "Şirk": 10095,
      "eki": 10096,
      "2021": 10097,
      "1979": 10098,
      "gelmektedir": 10099,
      "iste": 10100,
      "yıllar": 10101,
      "koşul": 10102,
      "etkili": 10103,
      "ölçüde": 10104,
      "Bol": 10105,
      "Bölgesi": 10106,
      "kullanılmaktadır": 10107,
      "çaplı": 10108,
      "Beşik": 10109,
      "sırasıyla": 10110,
      "söylem": 10111,
      "Ama": 10112,
      "James": 10113,
      "sağlar": 10114,
      "yılındaki": 10115,
      "taşım": 10116,
      "yabancı": 10117,
      "kateg": 10118,
      "teri": 10119,
      "Enstitüsü": 10120,
      "Kuvvetleri": 10121,
      "Mir": 10122,
      "Sür": 10123,
      "çocuğu": 10124,
      "mm": 10125,
      "ştan": 10126,
      "kendisini": 10127,
      "Taş": 10128,
      "şah": 10129,
      "düşünül": 10130,
      "Sev": 10131,
      "bistan": 10132,
      "uyordu": 10133,
      "39": 10134,
      "kova": 10135,
      "Aşağı": 10136,
      "uri": 10137,
      "etkisi": 10138,
      "kısım": 10139,
      "verilmiştir": 10140,
      "teles": 10141,
      "amak": 10142,
      "lıdır": 10143,
      "kanıt": 10144,
      "55": 10145,
      "Tat": 10146,
      "güc": 10147,
      "OS": 10148,
      "mol": 10149,
      "Tanrı": 10150,
      "Po": 10151,
      "antin": 10152,
      "Vak": 10153,
      "vaz": 10154,
      "korum": 10155,
      "dos": 10156,
      "Bakanı": 10157,
      "açısından": 10158,
      "donan": 10159,
      "own": 10160,
      "Ru": 10161,
      "laşması": 10162,
      "186": 10163,
      "dördüncü": 10164,
      "anlar": 10165,
      "vol": 10166,
      "telef": 10167,
      "kalı": 10168,
      "bölgesi": 10169,
      "çısı": 10170,
      "elerinden": 10171,
      "ğından": 10172,
      "ücü": 10173,
      "yerini": 10174,
      "lenmesi": 10175,
      "illa": 10176,
      "1981": 10177,
      "keşfedilmiştir": 10178,
      "oluşturur": 10179,
      "Kürt": 10180,
      "şı": 10181,
      "söyler": 10182,
      "Mi": 10183,
      "Türkç": 10184,
      "ilgi": 10185,
      "özgür": 10186,
      "edebiyat": 10187,
      "nasıl": 10188,
      "eksiyon": 10189,
      "MS": 10190,
      "ura": 10191,
      "şiddet": 10192,
      "Ric": 10193,
      "Jack": 10194,
      "kırmızı": 10195,
      "Arj": 10196,
      "akade": 10197,
      "Öğ": 10198,
      "kullanılmıştır": 10199,
      "laştı": 10200,
      "Pen": 10201,
      "ned": 10202,
      "İrlanda": 10203,
      "bilimsel": 10204,
      "metr": 10205,
      "imzal": 10206,
      "Günümüzde": 10207,
      "cev": 10208,
      "cins": 10209,
      "dili": 10210,
      "Fa": 10211,
      "eğitimi": 10212,
      "cılı": 10213,
      "şehrinde": 10214,
      "alg": 10215,
      "Okulu": 10216,
      "yarar": 10217,
      "Stad": 10218,
      "işaret": 10219,
      "unvan": 10220,
      "Lisesi": 10221,
      "bulunmuştur": 10222,
      "tim": 10223,
      "tanrı": 10224,
      "Yardım": 10225,
      "ğinin": 10226,
      "1974": 10227,
      "durumu": 10228,
      "Med": 10229,
      "polis": 10230,
      "korun": 10231,
      "elç": 10232,
      "doğum": 10233,
      "Star": 10234,
      "komut": 10235,
      "Arnav": 10236,
      "Güneş": 10237,
      "Kariyeri": 10238,
      "lit": 10239,
      "milletvekili": 10240,
      "ski": 10241,
      "Beşiktaş": 10242,
      "denk": 10243,
      "kaydet": 10244,
      "etmesi": 10245,
      "yüzden": 10246,
      "Birinci": 10247,
      "bazen": 10248,
      "Arnavut": 10249,
      "lıca": 10250,
      "etkilen": 10251,
      "oluşturul": 10252,
      "resim": 10253,
      "\".": 10254,
      "yetiştir": 10255,
      "ruz": 10256,
      "uyor": 10257,
      "Nüfus": 10258,
      "görevini": 10259,
      "atom": 10260,
      "Akdeniz": 10261,
      "oynan": 10262,
      "geçirdi": 10263,
      "ius": 10264,
      "kup": 10265,
      "Çocu": 10266,
      "1978": 10267,
      "Park": 10268,
      "diy": 10269,
      "meleri": 10270,
      "We": 10271,
      "ington": 10272,
      "annesi": 10273,
      "che": 10274,
      "kamu": 10275,
      "böylece": 10276,
      "Moskova": 10277,
      "Sağ": 10278,
      "yası": 10279,
      "Mag": 10280,
      "adamı": 10281,
      "İst": 10282,
      "isa": 10283,
      "Gö": 10284,
      "plak": 10285,
      "hayatını": 10286,
      "Ordusu": 10287,
      "vermiştir": 10288,
      "sınırları": 10289,
      "tamamladı": 10290,
      "teleskop": 10291,
      "meş": 10292,
      "kararı": 10293,
      "Grubu": 10294,
      "Bursa": 10295,
      "bis": 10296,
      "kov": 10297,
      "öncesi": 10298,
      "çer": 10299,
      "sabit": 10300,
      "malzem": 10301,
      "ment": 10302,
      "Mem": 10303,
      "FIFA": 10304,
      "sok": 10305,
      "tis": 10306,
      "denir": 10307,
      "omatik": 10308,
      "takımında": 10309,
      "Wal": 10310,
      "siyah": 10311,
      "tadan": 10312,
      "köpr": 10313,
      "Arjantin": 10314,
      "standart": 10315,
      "zarar": 10316,
      "mevcuttur": 10317,
      "giren": 10318,
      "dini": 10319,
      "edin": 10320,
      "Yarı": 10321,
      "IV": 10322,
      "lığın": 10323,
      "ükle": 10324,
      "dizisi": 10325,
      "enerj": 10326,
      "Festivali": 10327,
      "mezar": 10328,
      "Ti": 10329,
      "asıdır": 10330,
      "saha": 10331,
      "sağlayan": 10332,
      "aşağıdaki": 10333,
      "lanmaktadır": 10334,
      "itir": 10335,
      "acık": 10336,
      "Söz": 10337,
      "ağan": 10338,
      "blem": 10339,
      "sap": 10340,
      "üretilen": 10341,
      "Yas": 10342,
      "aktar": 10343,
      "yapılmış": 10344,
      "afer": 10345,
      "Un": 10346,
      "yapılır": 10347,
      "gitar": 10348,
      "amadı": 10349,
      "1973": 10350,
      "1945": 10351,
      "Gül": 10352,
      "Vi": 10353,
      "1968": 10354,
      "üyor": 10355,
      "Cal": 10356,
      "1975": 10357,
      "undaki": 10358,
      "raz": 10359,
      "Belç": 10360,
      "rit": 10361,
      "serg": 10362,
      "oluştu": 10363,
      "Yo": 10364,
      "olas": 10365,
      "hayatı": 10366,
      "mesaf": 10367,
      "nün": 10368,
      "Yayın": 10369,
      "Araştır": 10370,
      "Krallığı": 10371,
      "Kend": 10372,
      "ens": 10373,
      "orijinal": 10374,
      "ilecek": 10375,
      "ete": 10376,
      "Tab": 10377,
      "okulu": 10378,
      "filmin": 10379,
      "ferans": 10380,
      "istedi": 10381,
      "Çok": 10382,
      "alandı": 10383,
      "Selçuk": 10384,
      "ortalama": 10385,
      "1972": 10386,
      "nü": 10387,
      "yasak": 10388,
      "İdar": 10389,
      "[[": 10390,
      "makam": 10391,
      "kapat": 10392,
      "1977": 10393,
      "Air": 10394,
      "yavaş": 10395,
      "Ta": 10396,
      "Del": 10397,
      "bakır": 10398,
      "Ukrayna": 10399,
      "fat": 10400,
      "akım": 10401,
      "otur": 10402,
      "Oyuncu": 10403,
      "]]": 10404,
      "asındaki": 10405,
      "ford": 10406,
      "Ve": 10407,
      "olik": 10408,
      "gec": 10409,
      "Yen": 10410,
      "Cami": 10411,
      "Dil": 10412,
      "()": 10413,
      "başrol": 10414,
      "bilen": 10415,
      "Özellikle": 10416,
      "kural": 10417,
      "matematik": 10418,
      "abilecek": 10419,
      "hala": 10420,
      "Jan": 10421,
      "esn": 10422,
      ".)": 10423,
      "lanma": 10424,
      "alınan": 10425,
      "dat": 10426,
      "düşünc": 10427,
      "kategor": 10428,
      "dans": 10429,
      "49": 10430,
      "ulaştı": 10431,
      "almak": 10432,
      "Bla": 10433,
      "ayrıl": 10434,
      "rahat": 10435,
      "başta": 10436,
      "Peter": 10437,
      "iro": 10438,
      "ölmüştür": 10439,
      "İlçenin": 10440,
      "zir": 10441,
      "rekor": 10442,
      "İsviçre": 10443,
      "çoğunlukla": 10444,
      "ilçesi": 10445,
      "Hor": 10446,
      "üyeleri": 10447,
      "yayınladı": 10448,
      "Kab": 10449,
      "VI": 10450,
      "Uzun": 10451,
      "ister": 10452,
      "radyo": 10453,
      "Kel": 10454,
      "sürüm": 10455,
      "içindeki": 10456,
      "Phil": 10457,
      "Ka": 10458,
      "rapor": 10459,
      "ola": 10460,
      "astik": 10461,
      "Cam": 10462,
      "içine": 10463,
      "götür": 10464,
      "edilmesi": 10465,
      "vis": 10466,
      "rahim": 10467,
      "1976": 10468,
      "Britanya": 10469,
      "Komu": 10470,
      "kişiler": 10471,
      "koç": 10472,
      "neredeyse": 10473,
      "Bill": 10474,
      "görüntü": 10475,
      "endü": 10476,
      "dolar": 10477,
      "pas": 10478,
      "ölçümü": 10479,
      "My": 10480,
      "Kayn": 10481,
      "belli": 10482,
      "iyar": 10483,
      "85": 10484,
      "ja": 10485,
      "alim": 10486,
      "gece": 10487,
      "yaşadığı": 10488,
      "takımın": 10489,
      "yetiş": 10490,
      "fikir": 10491,
      "oğul": 10492,
      "Los": 10493,
      "kökenli": 10494,
      "Sezon": 10495,
      "paylaş": 10496,
      "Ekon": 10497,
      "odak": 10498,
      "by": 10499,
      "aracılığı": 10500,
      "RT": 10501,
      "atandı": 10502,
      "etmeni": 10503,
      "Hukuk": 10504,
      "ikti": 10505,
      "oyu": 10506,
      "psik": 10507,
      "Yaş": 10508,
      "finalde": 10509,
      "Teknik": 10510,
      "Yaşamı": 10511,
      "acaktır": 10512,
      "You": 10513,
      "Cez": 10514,
      "fet": 10515,
      "yönetimi": 10516,
      "onay": 10517,
      "sağlamak": 10518,
      "Frank": 10519,
      "Sivas": 10520,
      "lılar": 10521,
      "Lou": 10522,
      "oynadığı": 10523,
      "deş": 10524,
      "gücü": 10525,
      "los": 10526,
      "Ekonom": 10527,
      "deli": 10528,
      "eld": 10529,
      "idar": 10530,
      "Antal": 10531,
      "1920": 10532,
      "çapında": 10533,
      "öğretmen": 10534,
      "gizli": 10535,
      "kulübünde": 10536,
      "teslim": 10537,
      "işlet": 10538,
      "Tah": 10539,
      "olma": 10540,
      "omobil": 10541,
      "kod": 10542,
      "iklet": 10543,
      "bilinmektedir": 10544,
      "yayımlandı": 10545,
      "ld": 10546,
      "lerce": 10547,
      "lediği": 10548,
      "arada": 10549,
      "aki": 10550,
      "klasik": 10551,
      "olmadığı": 10552,
      "yayımlanan": 10553,
      "rag": 10554,
      "göstermektedir": 10555,
      "gazete": 10556,
      "ish": 10557,
      "laması": 10558,
      "Hır": 10559,
      "oto": 10560,
      "Alex": 10561,
      "kaynağı": 10562,
      "oğol": 10563,
      "takımının": 10564,
      ")'": 10565,
      "düğü": 10566,
      "Pe": 10567,
      "sava": 10568,
      "dakik": 10569,
      "etkinlik": 10570,
      "başlarında": 10571,
      "Takım": 10572,
      "kuzeyinde": 10573,
      "basketbol": 10574,
      "açtı": 10575,
      "Moğol": 10576,
      "com": 10577,
      "Meclisi": 10578,
      "adım": 10579,
      "kullanıldı": 10580,
      "lığında": 10581,
      "1969": 10582,
      "Alan": 10583,
      "Lib": 10584,
      "akistan": 10585,
      "Bunlar": 10586,
      "sektör": 10587,
      "ian": 10588,
      "Hasan": 10589,
      "Türkmen": 10590,
      "tılı": 10591,
      "ilinde": 10592,
      "...": 10593,
      "Olimpiyatları": 10594,
      "Dur": 10595,
      "1971": 10596,
      "ordus": 10597,
      "ife": 10598,
      "köş": 10599,
      "öğrenc": 10600,
      "makin": 10601,
      "isiyle": 10602,
      "yazılım": 10603,
      "gerekti": 10604,
      "Süley": 10605,
      "ny": 10606,
      "kesim": 10607,
      "TA": 10608,
      "cılığı": 10609,
      "isyan": 10610,
      "ımız": 10611,
      "ott": 10612,
      "Wor": 10613,
      "era": 10614,
      "saray": 10615,
      "ima": 10616,
      "sebebiyle": 10617,
      "yaptır": 10618,
      "cusu": 10619,
      "Tiya": 10620,
      "Ac": 10621,
      "we": 10622,
      "tap": 10623,
      "mühendis": 10624,
      "ât": 10625,
      "uçuş": 10626,
      "ague": 10627,
      "Bank": 10628,
      "cüm": 10629,
      "araj": 10630,
      "1928": 10631,
      "feder": 10632,
      "özellikleri": 10633,
      "yemek": 10634,
      "Na": 10635,
      "ith": 10636,
      "Süleyman": 10637,
      "yerde": 10638,
      "Tu": 10639,
      "dönüştür": 10640,
      "Rec": 10641,
      "içeri": 10642,
      "düşman": 10643,
      "Brezilya": 10644,
      "basit": 10645,
      "yükseldi": 10646,
      "tehlik": 10647,
      "düzenlem": 10648,
      "Play": 10649,
      "97": 10650,
      "46": 10651,
      "sert": 10652,
      "ayıf": 10653,
      "hatta": 10654,
      "ekran": 10655,
      "City": 10656,
      "ndeki": 10657,
      "günlük": 10658,
      "ple": 10659,
      "kapasit": 10660,
      "1967": 10661,
      "ratik": 10662,
      "geçiş": 10663,
      "baskı": 10664,
      "pos": 10665,
      "Aydın": 10666,
      "sorumlu": 10667,
      "reak": 10668,
      "Stadyum": 10669,
      "egemen": 10670,
      "artır": 10671,
      "emiştir": 10672,
      "nokta": 10673,
      "Ex": 10674,
      "ısal": 10675,
      "Macaristan": 10676,
      "Akademisi": 10677,
      "Ana": 10678,
      "yapısı": 10679,
      "kuşat": 10680,
      "Çocuk": 10681,
      "42": 10682,
      "kendine": 10683,
      "liler": 10684,
      "bölün": 10685,
      "liğin": 10686,
      "Thom": 10687,
      "atürk": 10688,
      "Konstan": 10689,
      "seyi": 10690,
      "insanların": 10691,
      "eleme": 10692,
      "uzman": 10693,
      "açıl": 10694,
      "soru": 10695,
      "Derneği": 10696,
      "yönetic": 10697,
      "Jon": 10698,
      "kurucu": 10699,
      "biçimde": 10700,
      "hafif": 10701,
      "aşırı": 10702,
      "abı": 10703,
      "ps": 10704,
      "ticari": 10705,
      "General": 10706,
      "eyh": 10707,
      "onların": 10708,
      "ling": 10709,
      "185": 10710,
      "araz": 10711,
      "önünde": 10712,
      "lıkları": 10713,
      "Ey": 10714,
      "Boğ": 10715,
      "cilik": 10716,
      "yetik": 10717,
      "alanda": 10718,
      "War": 10719,
      "oranı": 10720,
      "CD": 10721,
      "Atatürk": 10722,
      "yaşan": 10723,
      "sağladı": 10724,
      "teknoloj": 10725,
      "dul": 10726,
      "güzel": 10727,
      "teleskopla": 10728,
      "George": 10729,
      "kullandı": 10730,
      "Muharebesi": 10731,
      "lili": 10732,
      "tören": 10733,
      "mağlu": 10734,
      "ebek": 10735,
      "ilgilen": 10736,
      "sına": 10737,
      "95": 10738,
      "ettik": 10739,
      "müziği": 10740,
      "çekir": 10741,
      "başarısız": 10742,
      "gören": 10743,
      "oluşmaktadır": 10744,
      "ettiler": 10745,
      "Katalog": 10746,
      "yoluyla": 10747,
      "Norveç": 10748,
      "CA": 10749,
      "dönemin": 10750,
      "benim": 10751,
      "ıştı": 10752,
      "uydu": 10753,
      "mamış": 10754,
      "sivil": 10755,
      "Stan": 10756,
      "süz": 10757,
      "dipl": 10758,
      "rock": 10759,
      "Sup": 10760,
      "kullanımı": 10761,
      "araştırmalar": 10762,
      "kalmıştır": 10763,
      "Gökyüzünde": 10764,
      "ruk": 10765,
      "eseri": 10766,
      "yerek": 10767,
      "gre": 10768,
      "Micros": 10769,
      "not": 10770,
      "Tal": 10771,
      "yapmaya": 10772,
      "Sey": 10773,
      "Güven": 10774,
      "kilomet": 10775,
      "kök": 10776,
      "Zaman": 10777,
      "rig": 10778,
      "ato": 10779,
      "stad": 10780,
      "nüfusunun": 10781,
      "emek": 10782,
      "şair": 10783,
      "saf": 10784,
      "ight": 10785,
      "Oğ": 10786,
      "yaşadı": 10787,
      "programı": 10788,
      "Sek": 10789,
      "Rock": 10790,
      "üny": 10791,
      "lıklar": 10792,
      "Yine": 10793,
      "aka": 10794,
      "1961": 10795,
      "orada": 10796,
      "Kir": 10797,
      "muştu": 10798,
      "şart": 10799,
      "Fars": 10800,
      "oluştuğu": 10801,
      "use": 10802,
      "ıyordu": 10803,
      "lenme": 10804,
      "rafik": 10805,
      "liyet": 10806,
      "bahar": 10807,
      "lenin": 10808,
      "cası": 10809,
      "Sol": 10810,
      "geçmektedir": 10811,
      "çıkardı": 10812,
      "Ri": 10813,
      "çalışmaya": 10814,
      "zayıf": 10815,
      "Ede": 10816,
      "rey": 10817,
      "Müzesi": 10818,
      "kenar": 10819,
      "istin": 10820,
      "oluşturan": 10821,
      "Microsoft": 10822,
      "lad": 10823,
      "ucusu": 10824,
      "Kos": 10825,
      "sika": 10826,
      "seçimleri": 10827,
      "Danim": 10828,
      "ekten": 10829,
      "eyin": 10830,
      "Mahal": 10831,
      "Göz": 10832,
      "cis": 10833,
      "kaybetti": 10834,
      "davranış": 10835,
      "bazıları": 10836,
      ".,": 10837,
      "kültürel": 10838,
      "süt": 10839,
      "lardaki": 10840,
      "isten": 10841,
      "1965": 10842,
      "cen": 10843,
      "gösterdi": 10844,
      "öldürül": 10845,
      "pak": 10846,
      "1966": 10847,
      "besi": 10848,
      "çta": 10849,
      "erler": 10850,
      "Ür": 10851,
      "sonradan": 10852,
      "sağlık": 10853,
      "Fransızca": 10854,
      "sürec": 10855,
      "ike": 10856,
      "fı": 10857,
      "olmadığını": 10858,
      "getirildi": 10859,
      "ward": 10860,
      "listesinde": 10861,
      "menin": 10862,
      "Din": 10863,
      "civarında": 10864,
      "görülen": 10865,
      "adeniz": 10866,
      "sembol": 10867,
      "pozisyonunda": 10868,
      "Haç": 10869,
      "1930": 10870,
      "BMM": 10871,
      "yere": 10872,
      "ihtiyaç": 10873,
      "Balık": 10874,
      "ılımı": 10875,
      "barış": 10876,
      "topluluk": 10877,
      "desi": 10878,
      "emin": 10879,
      "44": 10880,
      "Ard": 10881,
      "Sonuç": 10882,
      "web": 10883,
      "başlamış": 10884,
      "cık": 10885,
      "fonksiyon": 10886,
      "yılın": 10887,
      "ilerde": 10888,
      "ES": 10889,
      "ılıp": 10890,
      "TBMM": 10891,
      "kabil": 10892,
      "katılan": 10893,
      "Naz": 10894,
      "hiss": 10895,
      "tok": 10896,
      "azalt": 10897,
      "yüzünden": 10898,
      "yılda": 10899,
      "ân": 10900,
      "onlar": 10901,
[...]
